{
  "\u0120mating": 31993,
  "\u0120sabotage": 31983,
  "andum": 25933,
  "\u0120streaks": 48356,
  "\u0120unclear": 10061,
  "\u0120Baghd": 18706,
  "\u0120Kyr": 42748,
  "changing": 22954,
  "\u0120unsett": 29286,
  "\u0120utilizing": 25137,
  "\u0120agitated": 41574,
  "\u0120belie": 1250,
  "\u0120bike": 7161,
  "encers": 42288,
  "\u0120Rebellion": 34848,
  "\u0120Visitors": 44535,
  "\u0120couch": 18507,
  "\u0120crappy": 40805,
  "\u0120bounces": 49623,
  "Property": 21746,
  "ible": 856,
  "assembled": 46826,
  "hm": 23940,
  "\u0120Gareth": 39897,
  "per": 525,
  "\u0120itching": 48140,
  "\u0120tob": 10773,
  "\u0120Bulgar": 26163,
  "\u0120suppl": 6019,
  "^^": 18237,
  "\u0120generate": 7716,
  "\u0120clen": 38566,
  "\u0120journals": 22790,
  "\u0120lizard": 42406,
  "OIL": 49713,
  "\u0120trilogy": 26298,
  "787": 41019,
  "\u0120ticket": 7846,
  "\u0120tox": 8293,
  "Anim": 35320,
  "gemony": 38953,
  "\u0120advers": 16907,
  "lab": 23912,
  "\u01201920": 14062,
  "\u0120Rational": 46863,
  "abs": 8937,
  "play": 1759,
  "\u0120unquestion": 38766,
  "\u0120Mon": 2892,
  "\u0120impl": 4114,
  "\u0120NEC": 41804,
  "odynamics": 44124,
  "\u0120Corinth": 31268,
  "\u0120careful": 8161,
  "Loading": 19031,
  "\u0120Alan": 12246,
  "\u0120GL": 10188,
  "roe": 20646,
  "prov": 15234,
  "rians": 19151,
  "\u0120COMMUN": 48811,
  "\u0120overt": 9929,
  "\u0120permanently": 15043,
  "\u0120rand": 43720,
  "\u0120stride": 33769,
  "irc": 1980,
  "\u0120VPN": 21669,
  "\u0120Laurel": 43442,
  "\u0120tabletop": 45052,
  "\u0120traditions": 15421,
  "\u0120composite": 24185,
  "\u0120dominates": 38777,
  "\u0120someday": 25580,
  "iration": 15297,
  "\u0120biome": 48493,
  "\u0120creeping": 38598,
  "687": 39925,
  "concept": 43169,
  "\u0120Aud": 7591,
  "ASS": 10705,
  "\u0120Lud": 24177,
  "\u0120Mole": 25726,
  "\u0120eater": 38338,
  "\u0120gauge": 18266,
  "OVER": 41983,
  "Semitic": 28753,
  "\u0120Buckley": 41493,
  "\u0120Asc": 29469,
  "\u0120pertinent": 35268,
  "\u0120privat": 21883,
  "eln": 45542,
  "\u0120Ramadan": 37604,
  "\u0120cases": 2663,
  "\u0120revenue": 6426,
  "random": 25120,
  "\u0120unatt": 29327,
  "\u0120workplace": 15383,
  "\u012084": 9508,
  "\u0120dom": 2401,
  "\u0120convin": 9120,
  "oh": 1219,
  "\u0120hung": 9174,
  "obbies": 41372,
  "\u0120establish": 4474,
  "\u0120painter": 34537,
  "unky": 28898,
  "FG": 30386,
  "\u00e3\u0125\u012b\u00e3\u0125\u00a9\u00e3\u0124\u00b4\u00e3\u0125\u00b3": 24731,
  "\u0120spike": 20240,
  "olit": 6212,
  "\u0131": 237,
  "\u0120apparel": 34273,
  "\u0120referendum": 11467,
  "cling": 8493,
  "\u0120slots": 17314,
  "\u0120Newsweek": 39594,
  "\u0120secondly": 48550,
  "kat": 41826,
  "\u0120Ann": 5506,
  "\u0120quiet": 5897,
  "\u0120offenses": 18514,
  "\u0120Historically": 48153,
  "iasm": 16401,
  "rehensible": 34718,
  "olen": 8622,
  "\u0120Updates": 28090,
  "train": 27432,
  "\u012048": 4764,
  "\u0120Kenyan": 47214,
  "\u0120broaden": 44870,
  "oan": 24611,
  "\u0120nas": 25221,
  "\u0120MOR": 35208,
  "\u0120optimal": 16586,
  "\u0120regimes": 25879,
  "\u00d8\u00af": 38843,
  "ynam": 4989,
  "\u0120Alv": 33414,
  "\u0120Intellectual": 42443,
  "\u0120cakes": 30849,
  "\u0120categ": 4253,
  "\u0120chilling": 28010,
  "\u0120conclud": 5392,
  "\u0120Ov": 46941,
  "pta": 32283,
  "\u0120bullshit": 20041,
  "lasses": 28958,
  "\u0120craw": 27784,
  "\u0120disappears": 27934,
  "\u0120hugely": 22641,
  "\u0120rooting": 40105,
  "ewitness": 28588,
  "seen": 15898,
  "chwitz": 36297,
  "orporated": 40132,
  "spons": 20587,
  "\u0120Kennedy": 10401,
  "\u0120incurred": 23436,
  "\u0120path": 3108,
  "\u0120reclaimed": 50225,
  "\u0120Hezbollah": 22871,
  "\u0120Previously": 29875,
  "heard": 23636,
  "ollywood": 31777,
  "\u0120Neander": 38752,
  "\u0120fel": 10756,
  "\u0120fell": 3214,
  "facing": 29532,
  "Vaults": 33937,
  "\u0120dependent": 10795,
  "\u0120allied": 22034,
  "committee": 26799,
  "\u0120ey": 1926,
  "\u0120fading": 31465,
  "\u0120Infinite": 22380,
  "\u0120Honestly": 34173,
  "\u0120Tax": 9241,
  "\u0120socialism": 19803,
  "Got": 30074,
  "phasis": 28432,
  "\u0120CTRL": 45249,
  "\u0120Eternity": 33410,
  "\u0120Finch": 45277,
  "\u0120Minimum": 26265,
  "Campaign": 46102,
  "Ma": 21467,
  "\u0120enclosure": 30685,
  "\u0120Tulsa": 36443,
  "\u0120illustrious": 47887,
  "\u0120lamb": 19343,
  "\u0120negligence": 28612,
  "\u0120pass": 1208,
  "Transfer": 43260,
  "\u0120(*": 20789,
  "\u0120502": 47233,
  "\u0120Serge": 14465,
  "\u0120lion": 18744,
  "\u0120'[": 44438,
  "Cru": 27535,
  "\u0120taxes": 5704,
  "501": 33548,
  "\u0120volley": 32967,
  "where": 3003,
  "--------------": 26171,
  "\u0120Trump": 1301,
  "\u0120abundant": 23263,
  "\u0120diagnose": 37489,
  "hots": 17398,
  "\u0120amusing": 28297,
  "inker": 24275,
  "997": 39647,
  "hedon": 46086,
  "\u0120Thames": 42521,
  "\u0120crashing": 21899,
  "\u0120Consumption": 42158,
  "\u0120ban": 3958,
  "laughter": 27815,
  "\u0120awards": 13304,
  "clus": 2527,
  "0002": 34215,
  "ades": 2367,
  "\u00e3\u0125\u0143": 16253,
  "\u0120Beans": 49740,
  "\u0120outstanding": 11660,
  "\u0120rented": 26399,
  "\u0120toddler": 30773,
  "080": 33057,
  "ub": 549,
  "LES": 28378,
  "\u0120hits": 7127,
  "\u0120rotated": 38375,
  "\u0120Tobacco": 28603,
  "\u0120convent": 8294,
  "\u0120REG": 23337,
  "\u0120Wisdom": 24075,
  "\u0120nonex": 36196,
  "lems": 46367,
  "\u0120margin": 10330,
  "\u0120Gin": 21444,
  "\u0120pivot": 30355,
  "\u0120Lod": 45238,
  "\u0120Colomb": 16872,
  "='": 11639,
  "\u0120Pradesh": 25945,
  "COL": 25154,
  "\u0120NBA": 7403,
  "\u0120Solo": 20284,
  "\u0120slamming": 39603,
  "pro": 1676,
  "\u0120mod": 953,
  "\u0120rent": 5602,
  "\u0120rotten": 36371,
  "\u0120Md": 39762,
  "\u0120severe": 6049,
  "\u0120toes": 23932,
  "\u0120warned": 7728,
  "absolutely": 42994,
  "Translation": 48313,
  "ually": 935,
  "video": 15588,
  "\u0120Enh": 15860,
  "\u0120claimed": 4752,
  "\u0120bulb": 28287,
  "redict": 17407,
  "\u0120DOI": 40722,
  "\u0120Northwestern": 30197,
  "\",": 1600,
  "\u0120Shiny": 39657,
  "\u0120distinct": 7310,
  "ifier": 7483,
  "\u0120Geneva": 20552,
  "},": 5512,
  "Pokemon": 48034,
  "\u0120debian": 50001,
  "\u0120function": 2163,
  "\u0120sergeant": 33861,
  "453": 36625,
  "als": 874,
  "igrate": 42175,
  "\u0120wildlife": 15599,
  "counter": 24588,
  "\u0120willing": 4684,
  "\u0120dou": 2255,
  "\u0120item": 2378,
  "\u0120remarks": 10252,
  "\u0120curry": 34611,
  "\u0120signific": 2216,
  "\u0120HELL": 47899,
  "science": 16801,
  "Chicago": 25705,
  "\u00e3\u0125\u0129": 21959,
  "\u0120Prosecut": 26233,
  "\u0120Sacramento": 19375,
  "\u0120deities": 43844,
  "artifacts": 50179,
  "Inf": 18943,
  "\u0120aud": 2709,
  "\u0120basketball": 9669,
  "\u0120sacks": 23249,
  "\u0120wild": 4295,
  "\u0120outcome": 8055,
  "\u0120thrust": 14613,
  "com": 785,
  "rary": 11619,
  "\u0120Ah": 7900,
  "earned": 39123,
  "ances": 1817,
  "FINEST": 40236,
  "\u0120289": 38902,
  "uration": 3924,
  "ede": 18654,
  "\u0120Federal": 5618,
  "\u0120console": 8624,
  "rig": 4359,
  "English": 15823,
  "\u0120Sic": 28799,
  "\u0120Headquarters": 32193,
  "\u0120foreign": 3215,
  "\u0120latter": 6846,
  "\u0120inspired": 7867,
  "\u0120Zombies": 23274,
  "\u0120peek": 27185,
  "\u0120clothed": 45361,
  "\u0120pegged": 48781,
  "\u0120shipped": 14338,
  "498": 36260,
  "enforcement": 44976,
  "ierrez": 44448,
  "KING": 37286,
  "tyard": 30308,
  "ursor": 21471,
  "\u0120enabled": 9343,
  "\u0120magnesium": 33525,
  "\u0120Dag": 32167,
  "\u0120measurement": 15558,
  "\u0120gigs": 42299,
  "\u00e8\u00bb": 43102,
  "insured": 28409,
  "\u0120addressed": 9469,
  "\u0120Earthqu": 33842,
  "\u0120Farrell": 37568,
  "\u00cb": 135,
  "\u0120compan": 2463,
  "Letter": 45708,
  "\u0120reaction": 6317,
  "\u0120Venture": 35686,
  "alion": 19275,
  "\u0120LOW": 46663,
  "Yang": 38663,
  "gg": 1130,
  "\u0120prohibits": 24059,
  "ixty": 19404,
  "esome": 5927,
  "icated": 3474,
  "inventoryQuantity": 39756,
  "wik": 20763,
  "\u0120Q": 1195,
  "relative": 43762,
  "\u0120ACA": 27628,
  "\u0120voluntary": 16171,
  "initely": 12998,
  "Yeah": 10995,
  "gob": 44270,
  "Gil": 40747,
  "\u0120brewed": 40163,
  "VILLE": 38526,
  "\u0120smile": 8212,
  "consider": 44353,
  "\u0120username": 20579,
  "\u0120exhaustion": 32493,
  "\u0120LEG": 20978,
  "\u0120creatures": 8109,
  "\u0120denotes": 43397,
  "eno": 23397,
  "\u0120Paramount": 38153,
  "\u0120apprehension": 46473,
  "\u0120maneuvers": 38974,
  "\u0120glean": 41881,
  "\u0120Atlas": 22494,
  "\u0120representatives": 10826,
  "\u0120resembling": 29474,
  "\u0120retrieving": 50122,
  "\u0120rookies": 39777,
  "\u0120sket": 28427,
  "\u00c2\u00a7": 16273,
  "\u0120hydrogen": 17669,
  "\u0120memory": 4088,
  "cakes": 37263,
  "\u0120nationalist": 19848,
  "\u0120<[": 29342,
  "\u0120richest": 24348,
  "\u0120ship": 4074,
  "oked": 6545,
  "\u0120UKIP": 37809,
  "uploads": 39920,
  "\u0120army": 5428,
  "\u0120cite": 21729,
  "\u0120Kill": 12265,
  "Winter": 35376,
  "Christmas": 44614,
  "\u0120Philly": 30029,
  "\u0120decriminal": 38126,
  "\u0120Morning": 14410,
  "Counter": 31694,
  "\u0120geometry": 22939,
  "\u0120Columbia": 9309,
  "Tax": 27017,
  "perture": 27286,
  "\"-": 26793,
  "ream": 1476,
  "\u0120$_": 40111,
  "ama": 1689,
  "\u0120B": 347,
  "\u0120inserted": 18846,
  "\u0120man": 582,
  "\u0120\"<": 33490,
  "\u0120approximation": 40874,
  "burg": 7423,
  "bes": 12636,
  "\u0120Extend": 46228,
  "ules": 5028,
  "\u0120RandomRedditor": 36173,
  "\u0120Ultron": 46315,
  "\u0120topic": 7243,
  "\u0120ALS": 27249,
  "\u0120lucky": 9670,
  "300": 6200,
  "LED": 30465,
  "\u0120obstacle": 22007,
  "\u0120pizza": 14256,
  "\u0120plain": 8631,
  "\u0120Macy": 50048,
  "Reason": 45008,
  "mia": 20730,
  "Shield": 33651,
  "593": 49051,
  "\u0120Savings": 40947,
  "Grand": 23581,
  "\u0120available": 1695,
  "JJ": 32178,
  "\u0120Spiritual": 33944,
  "\u0120garment": 30594,
  "\u0120hyp": 5328,
  "\u0120killer": 11868,
  "sty": 34365,
  "izo": 41282,
  "rael": 2510,
  "\u0120castle": 16669,
  "\u0120clients": 7534,
  "\u0120un": 555,
  "sav": 39308,
  "trl": 14859,
  "517": 48170,
  "iton": 37752,
  "\u0120boulder": 46483,
  "\u0120Caribbean": 18020,
  "\u0120continuum": 44422,
  "\u0120errors": 8563,
  "\u0120gist": 50057,
  "\u0120impose": 13551,
  "\u0120thoroughly": 13770,
  "ia": 544,
  "\u0120Levy": 32036,
  "\u0120insulation": 32806,
  "\u0120nationalists": 32442,
  "\u0120stagn": 23196,
  "\u0120cocaine": 15144,
  "\u0120wide": 3094,
  "\u0120Franch": 41705,
  "\u0120Mongo": 42591,
  "Equ": 23588,
  "oran": 31884,
  "iop": 14922,
  "urg": 3686,
  "911": 35549,
  "\u0120Bucket": 48353,
  "\u0120Oak": 9121,
  "\u0120Rut": 21214,
  "\u0120Robin": 12325,
  "\u0120Lux": 17145,
  "\u0120Set": 5345,
  "\u0120Follow": 7281,
  "\u0120Us": 4021,
  "skinned": 41412,
  "\u0120Extra": 17221,
  "\u0120Trop": 25491,
  "\u012093": 10261,
  "\u0120Users": 18987,
  "\u0120Sharif": 44144,
  "\u0120constituent": 39384,
  "\u0120gunman": 23128,
  "\u0120limitations": 11247,
  "Rogue": 48163,
  "urgical": 31839,
  "+(": 33747,
  "ample": 1403,
  "ractor": 40450,
  "\u0120considerably": 15394,
  "\u0120PVC": 46377,
  "\u0120mighty": 18680,
  "\u0120predictor": 41568,
  "\u0120Simple": 17427,
  "Ord": 35422,
  "parent": 8000,
  "HS": 7998,
  "\u0120scientist": 11444,
  "\u0120Jensen": 32623,
  "\u0120Revival": 48095,
  "\u0120profession": 7573,
  "\u0120newborn": 23856,
  "\u0120spectacular": 15013,
  "\u0120operative": 28609,
  "\u0120phen": 6566,
  "\u0120annotations": 37647,
  "igator": 23823,
  "\u0120Increase": 25285,
  "\u0120arrogance": 35033,
  "\u0120ps": 26692,
  "\u0120Niet": 28428,
  "iev": 11203,
  "ouble": 15270,
  "\u0120Winchester": 40868,
  "\u0120samurai": 49797,
  "ukemia": 43505,
  "Age": 23396,
  "Time": 7575,
  "\u0120denied": 6699,
  "\u0120gn": 19967,
  "\u0120grenade": 26168,
  "\u0120Electro": 38781,
  "yth": 5272,
  "\u0120array": 7177,
  "Global": 22289,
  "\u0120pond": 16723,
  "\u0120quarters": 13620,
  "\u0120realm": 13360,
  "\u0120relations": 2316,
  "\u0120Smile": 48248,
  "r": 81,
  "\u0120slideshow": 48828,
  "\u0120Profile": 13118,
  "\u0120soft": 2705,
  "etermined": 23444,
  "\u0120intimidate": 34903,
  "\u0120untreated": 41539,
  "\u0120Torah": 33366,
  "\u0120Rod": 6882,
  "Lin": 14993,
  "\u0120a": 257,
  "\u0120cracks": 23217,
  "\u0120Hub": 14699,
  "\u0120jailed": 22159,
  "poll": 30393,
  "\u0120liquidity": 31061,
  "oz": 8590,
  "intensity": 47799,
  "\u0120Fuji": 43694,
  "\u0120Boat": 30828,
  "\u0120offered": 4438,
  "\u0120Devi": 47509,
  "\u0120scholar": 15606,
  "Anything": 40028,
  "inatory": 23132,
  "ook": 566,
  "wick": 16239,
  "\u0120rot": 5724,
  "\u0120nearing": 37242,
  "\u0120${": 25597,
  "crime": 28126,
  "\u0120Jersey": 8221,
  "orship": 11094,
  "\u0120Rights": 6923,
  "\u00d7\u00aa": 42064,
  "\u0120convoy": 32860,
  "omination": 27744,
  "\u0120overcame": 49490,
  "repre": 10353,
  "\u0120worker": 8383,
  "\u0120shrimp": 30060,
  "helial": 35566,
  "\u0120stirring": 26547,
  "omez": 30010,
  "\u0120unex": 8522,
  "based": 3106,
  "\u0120Banner": 27414,
  "MODE": 49058,
  "cr": 6098,
  "\u0120civic": 23265,
  "\u0120hijacked": 41554,
  "\u0120capitalists": 32663,
  "352": 33394,
  "ZZ": 30148,
  "apper": 11463,
  "dq": 49506,
  "\u0120Dinner": 34584,
  "\u0120cried": 16896,
  "\u0120hunting": 10988,
  "\u0120inconvenience": 31818,
  "\u0120ins": 1035,
  "\u0120reps": 20982,
  "483": 38783,
  "\u0120visibly": 30544,
  "\u0120neglect": 17985,
  "\u0120Tanner": 43544,
  "\u0120deliberations": 45863,
  "\u0120Loc": 15181,
  "\u0120Tide": 31105,
  "ipping": 4501,
  "\u0120devils": 42466,
  "\u0120discrep": 24373,
  "\u00e3\u0125\u0137": 17681,
  "\u0120incidents": 10207,
  "\u0120return": 1441,
  "\u0120rhetorical": 38505,
  "\u0120striker": 19099,
  "front": 8534,
  "\u0120frust": 6730,
  "\u0120schedule": 7269,
  "sand": 38142,
  "accompan": 41974,
  "\u0120plus": 5556,
  "\u0120911": 16679,
  "Ben": 11696,
  "\u0120Finally": 9461,
  "\u0120habitable": 49055,
  "\u0120uh": 21480,
  "\u0120financially": 18786,
  "Ken": 27827,
  "\u0120backbone": 32774,
  "\u0120Mans": 18580,
  "\u0120ceasefire": 29717,
  "\u0120bon": 5351,
  "\u0120Renew": 29479,
  "\u0120Nak": 22255,
  "\u0120Restoration": 36155,
  "\u0120doctors": 7519,
  "\u0120headset": 23492,
  "amp": 696,
  "\u0120consumer": 7172,
  "\u0120actively": 10630,
  "lic": 677,
  "\u0120iOS": 8969,
  "\u0120industry": 2831,
  "607": 31980,
  "phabet": 19557,
  "\u0120lineage": 31144,
  "\u0120Gust": 26657,
  "hing": 722,
  "\u0120Loaded": 42485,
  "Donnell": 24853,
  "\u0120RandomRedditorWithNo": 36174,
  "\u0120masterpiece": 30669,
  "cha": 11693,
  "ition": 653,
  "URN": 27064,
  "\u0120Interest": 12033,
  "\u0120Reb": 15652,
  "otonin": 29613,
  "\u0120carb": 13265,
  "UTH": 24318,
  "\u0120grew": 6348,
  "\u0120incendiary": 47716,
  "\u0120beside": 13970,
  "\u0120Pyramid": 41450,
  "\u0120introductory": 33982,
  "ciplinary": 29386,
  "\u0120mosque": 18575,
  "Cruz": 41811,
  "together": 45525,
  "\u0120multip": 18540,
  "\u0120sensitivity": 14233,
  "\u0120Retail": 26702,
  "\u0120listings": 26890,
  "\u0120shockingly": 49992,
  "\u0120slides": 19392,
  "\u0120algae": 33773,
  "\u0120vanity": 39609,
  "\u0120Lead": 20116,
  "OR": 1581,
  "\u0120\u00f0\u0141\u0133": 50169,
  "atre": 10562,
  "\u0120preferable": 33887,
  "\u0120Dad": 17415,
  "Ian": 37776,
  "aque": 18251,
  "reaching": 30771,
  "\u0120engaged": 7953,
  "ild": 688,
  "fun": 12543,
  "\u00cf\u0126": 32830,
  "\u0120moaning": 47644,
  "\u0120slowed": 20955,
  "Assistant": 48902,
  "\u0120spouses": 30250,
  "agall": 44906,
  "yrics": 14279,
  "Fine": 34389,
  "\u0120PID": 37022,
  "SPEC": 48451,
  "Important": 33796,
  "\u0120boy": 2933,
  "\u0120Jarvis": 46595,
  "\u0120NOT": 5626,
  "etooth": 16271,
  "\u0120eclipse": 25872,
  "useum": 6744,
  "\u0120manager": 4706,
  "\u0120pursuit": 14748,
  "\u0120vit": 9090,
  "ems": 5232,
  "\u0120squares": 24438,
  "\u0120gardening": 46072,
  "BY": 17513,
  "Members": 25341,
  "lon": 14995,
  "\u0120LCS": 38217,
  "\u0120Kitt": 43670,
  "\u0120instruments": 12834,
  "\u0120Boy": 6387,
  "BOX": 39758,
  "\u0120Lightning": 12469,
  "\u0120ranges": 16069,
  "\u0120ecology": 36517,
  "\u0120Engineers": 27170,
  "En": 4834,
  "woman": 8580,
  "\u0120responds": 20067,
  "\u0120Avengers": 19845,
  "\u0120Sister": 26553,
  "\u0120inconven": 20488,
  "Inst": 6310,
  "\u0120grievance": 47645,
  "\u0120Covenant": 25489,
  "Winner": 48056,
  "ippy": 41214,
  "ittens": 34978,
  "ethy": 33077,
  "\u0120detectives": 24304,
  "\u0120school": 1524,
  "\u0120thereby": 12839,
  "\u0120traverse": 38138,
  "ERG": 49837,
  "selected": 34213,
  "\u00ce\u00ba": 43000,
  "\u0120Taking": 20879,
  "\u0120Ub": 12021,
  "\u0120pled": 8032,
  "\u0120discovery": 9412,
  "\u0120queen": 16599,
  "\u0120tore": 26197,
  "768": 30610,
  "pdf": 12315,
  "\u0120Minneapolis": 20455,
  "\u0120cos": 8615,
  "ynchron": 24871,
  "\u00e4\u00b9\u012d": 45298,
  "\u0120courts": 8028,
  "\u0120Diet": 16292,
  "\u0120substant": 5925,
  "\u0120\u00e2\u0122\u0130": 24398,
  "\u0120rev": 2710,
  "\u0120faiths": 43028,
  "\u0120APP": 43504,
  "Dialog": 44204,
  "\u0120dexterity": 50003,
  "guns": 44265,
  "\u0120Leo": 19632,
  "\u0120Country": 12946,
  "\u0120Var": 12372,
  "\u0120quantities": 17794,
  "\u0120radicals": 32842,
  "Vi": 38432,
  "AF": 8579,
  "\u0120sticking": 17274,
  "\u0120Hyper": 15079,
  "\u0120eru": 13724,
  "\u0120nose": 9686,
  "\u0120Xer": 44264,
  "\u0120Rachel": 15984,
  "Flash": 30670,
  "\u0120vigilance": 49202,
  "cemic": 40478,
  "\u0120sle": 3133,
  "\u0120reacts": 30174,
  "umen": 20080,
  "\u0120AW": 14356,
  "'-": 29001,
  "\u00e0\u00a8": 19469,
  "\u0120Fridays": 45011,
  "\u0120searched": 16499,
  "\u0120Com": 955,
  "\u0120zoo": 26626,
  "\u0120decoration": 42050,
  "\\-": 41441,
  "\u0120Nas": 22767,
  "\u0120liked": 8288,
  "isitions": 29593,
  "\u0120address": 2209,
  "\u0120resolved": 12939,
  "\u0120fifteen": 17280,
  "\u0120intr": 9913,
  "\u0120capt": 3144,
  "\u0120applicants": 17057,
  "oris": 37279,
  "off": 2364,
  "ALS": 23333,
  "a": 64,
  "\u0120Protective": 45004,
  "\u0120arousal": 36894,
  "aunders": 32818,
  "\u0120Benefits": 30582,
  "\u0120avatar": 30919,
  "\u0120emoji": 44805,
  "vet": 16809,
  "\u0120Architect": 17340,
  "objects": 48205,
  "\u0120SPACE": 37253,
  "\u0120unl": 9642,
  "\u0120zombies": 19005,
  "\u0120Simone": 47592,
  "\u0120Crate": 37504,
  "\u0120caravan": 44321,
  "ORPG": 49665,
  "wei": 42990,
  "\u0120adore": 47194,
  "resents": 6629,
  "NYSE": 49430,
  "\u0120Burger": 28983,
  "\u0120Cities": 20830,
  "feet": 39690,
  "od": 375,
  "pointers": 47809,
  "record": 22105,
  "\u0120Gunn": 40837,
  "\u0120Images": 5382,
  "\u0120adopted": 8197,
  "\u0120carriage": 25739,
  "\u0120Daily": 6714,
  "\u0120hundred": 3470,
  "combe": 49325,
  "\u0120looked": 3114,
  "\u0120mages": 45520,
  "\u0120proceeded": 18814,
  "phot": 38611,
  "\u0120\u00ce\u00bcg": 44415,
  "\u0120instantly": 11101,
  "\u0120Don": 2094,
  "\u0120mur": 4636,
  "357": 27277,
  "elsh": 21564,
  "\u0120Jaw": 40863,
  "ryce": 28169,
  "\u0120reson": 14309,
  "\u0120Opp": 9385,
  "Accept": 38855,
  "ifacts": 37199,
  "oma": 6086,
  "\u0120Fle": 12005,
  "outher": 44262,
  "\u0120Sol": 4294,
  "\u0120goblin": 44625,
  "\u0120pist": 11714,
  "\u00eb": 167,
  "\u0120proclaim": 23930,
  "astery": 29310,
  "uing": 4250,
  "54": 4051,
  "\u0120coordination": 19877,
  "\u0120prayed": 32168,
  "aining": 1397,
  "\u0120reminding": 30047,
  "omm": 2002,
  "stretched": 49729,
  "\u0120Lol": 44841,
  "errors": 48277,
  "onte": 38599,
  "\u0120SJ": 31766,
  "\u0120Univers": 26986,
  "\u0120agent": 5797,
  "\u0120applications": 5479,
  "azy": 12582,
  "workers": 22896,
  "i": 72,
  "\u0120attitudes": 14479,
  "\u0120could": 714,
  "\u0120burgers": 34623,
  "\u0120however": 2158,
  "\u0120lamp": 20450,
  "lund": 37525,
  "\u0120congr": 19030,
  "\u0120mech": 36571,
  "\u0120quantitative": 26610,
  "272": 29807,
  "holders": 10476,
  "\u0120powered": 13232,
  "Top": 9126,
  "\u0120inexper": 31830,
  "\u0120smart": 4451,
  "\u0120specialty": 22847,
  "\u0120unnamed": 23226,
  "\u0120Furthermore": 11399,
  "ste": 4169,
  "\u0120SOC": 31430,
  "425": 32114,
  "\u0120payday": 45691,
  "\u0120Advent": 33732,
  "asts": 5773,
  "\u0120uranium": 22010,
  "\u0120dawn": 17577,
  "\u0120weeds": 36708,
  "\u0120219": 30453,
  "icket": 9715,
  "\u0120Build": 10934,
  "\u0120sovereignty": 18582,
  "\u0120Ranch": 24576,
  "uggage": 29672,
  "\u0120swift": 14622,
  "Moreover": 24606,
  "\u0120Julia": 22300,
  "\u0120Underground": 22153,
  "\u0120formulations": 49971,
  "380": 23734,
  "\u0120gentlemen": 28527,
  "\u0120feels": 5300,
  "pected": 7254,
  "\u0120Europe": 2031,
  "\u0120aest": 14606,
  "\u0120projection": 20128,
  "Without": 16249,
  "\u0120LAPD": 44776,
  "Extra": 27726,
  "her": 372,
  "\u0120ON": 6177,
  "\u0120assum": 4368,
  "\u0120tattoos": 29591,
  "\u0120Franks": 50099,
  "\u0120Jr": 7504,
  "\u0120critique": 19976,
  "\u0120Quit": 48887,
  "Network": 26245,
  "\u0120dign": 13469,
  "\u0120sloppy": 35862,
  "\u0120Boom": 31824,
  "767": 32059,
  "\u0120tooltip": 49472,
  "lambda": 50033,
  "\u0120honour": 15393,
  "429": 11785,
  "\u0120poppy": 47867,
  "\u0120trump": 19997,
  "\u0120Asylum": 36885,
  "cp": 13155,
  "\u0120Trinidad": 48269,
  "\u0120motif": 32702,
  "\u0120swept": 17676,
  "\u0120checkout": 28006,
  "\u0120lightweight": 18700,
  "\u01201903": 41625,
  "\u0120county": 7968,
  "sl": 6649,
  "\u0120IB": 34782,
  "Application": 23416,
  "\u0120eighteenth": 45592,
  "21": 2481,
  "\u0120sidel": 33614,
  "\u0120brutality": 24557,
  "cho": 6679,
  "\u0120redirect": 18941,
  "Hen": 26055,
  "\u0120Thomas": 5658,
  "\u0120ha": 387,
  "rob": 22609,
  "\u0120Reprodu": 36551,
  "\u0120pretend": 16614,
  "\u0120Browne": 46760,
  "\u0120Dep": 2129,
  "inness": 32990,
  "\u0120PSP": 48651,
  "\u0120arrivals": 34462,
  "\u0120bilingual": 48116,
  "Fort": 21926,
  "isoft": 29719,
  "\u0120PAT": 28748,
  "pole": 36869,
  "\u0120Sprite": 33132,
  "\u0120WAR": 11837,
  "wear": 13927,
  "\u0120prosecutors": 11947,
  "\u0120influences": 16717,
  ")[": 38381,
  "--+": 44785,
  "\u0120distress": 17087,
  "imeters": 31551,
  "1993": 24465,
  "\u0120Market": 5991,
  "\u0120Carm": 17998,
  "\u0120recruited": 18774,
  "held": 10217,
  "\u0120intervene": 22432,
  "Lens": 49479,
  "\u012071": 9166,
  "card": 9517,
  "\u0120Afghan": 6539,
  "ELL": 23304,
  "sn": 16184,
  "Fran": 38848,
  "tarian": 14012,
  "780": 40873,
  "\u0120Hardy": 27583,
  "\u0120Illust": 23279,
  "brow": 25367,
  "\u0120Dimension": 34024,
  "\u0120VS": 22269,
  "\u0120Prairie": 41196,
  "constitutional": 18789,
  "\u0120gor": 30344,
  "Manufact": 44445,
  "\u0120Ashe": 36318,
  "\u0120newsletters": 16983,
  "\u0120quotas": 38736,
  "\u0120Myr": 29772,
  "\":\"": 2404,
  "\u0120creed": 43514,
  "\u0120relentlessly": 37952,
  "\u0120skies": 24091,
  "advert": 17904,
  "\u0120Lynch": 16093,
  "ective": 13967,
  "\u0120rating": 7955,
  "\u0120reckoning": 49654,
  "\u0120guitars": 32497,
  "venue": 4080,
  "\u0120PARK": 42358,
  "come": 2958,
  "\u0120Acc": 6366,
  "\u0120ability": 2694,
  "\u0120diagnosed": 14641,
  "gor": 7053,
  "\u0120Bend": 26874,
  "\u0120reset": 13259,
  "Jonathan": 30365,
  "\u0120causes": 5640,
  "\u0120soils": 38750,
  "higher": 46503,
  "\u0120cy": 3075,
  "\u0120remed": 20100,
  "ibal": 21342,
  "<|endoftext|>": 50256,
  "\u0120308": 35617,
  "\u0120MC": 13122,
  "\u0120halfway": 19487,
  "\u0120Saur": 46197,
  "\u0120dressing": 18544,
  "\u0120k": 479,
  "\u0120TOM": 41526,
  "727": 47760,
  "Season": 18960,
  "\u0120Vegas": 9621,
  "\u0120melodies": 47077,
  "\u0120untouched": 36519,
  "\u0120Eid": 31022,
  "\u0120Exchange": 12516,
  "\u0120lands": 8604,
  "\u0120Router": 48538,
  "\u0120760": 48284,
  "\u0120freaking": 35607,
  "\u0120Yes": 3363,
  "zen": 4801,
  "Mrs": 27034,
  "\u0120Prague": 37079,
  "\u0120institution": 9901,
  "ability": 1799,
  "okin": 36749,
  "\u0120Broken": 22607,
  "\u0120EUR": 27526,
  "\u0120Mit": 11707,
  "\u0120cutoff": 45616,
  "\u0120DATA": 42865,
  "itability": 34147,
  "\u0120Fra": 39313,
  "\u0120inject": 8677,
  "porate": 38133,
  "\u0120Millennials": 42828,
  "\u0120crocod": 37565,
  "Secure": 49793,
  "amaru": 46893,
  "icians": 5106,
  "\u0120tropical": 19690,
  "\u0120\"\"\"": 37227,
  "\u0120remaining": 5637,
  "iversity": 1608,
  "\u0120ANC": 46179,
  "Der": 28532,
  "\u0120URLs": 32336,
  "\u0120IPM": 50200,
  ",...": 42303,
  "cb": 21101,
  "\u0120DIRECT": 42242,
  "\u0120Gil": 10689,
  "\u0120builders": 31606,
  "\u0120infiltrated": 43862,
  "\u0120initiating": 40150,
  "\u0120commanded": 22419,
  "\u0120winters": 45764,
  "404": 26429,
  "know": 16275,
  "968": 38956,
  "\u0120Lift": 43711,
  "ash": 1077,
  "\u0120Subst": 24944,
  "Bed": 45896,
  "\u0120Avery": 29218,
  "\u0120explicit": 7952,
  "\u0120Nelson": 12996,
  "\u0120redistribution": 41425,
  "otional": 25453,
  "\u0120said": 531,
  "\u0120unlucky": 39411,
  "\u0120Orc": 19083,
  "emaker": 32174,
  "\u0120decon": 37431,
  "flower": 25547,
  "\u0120nurture": 43414,
  "\u0120addr": 37817,
  "Uber": 39018,
  "ocamp": 26047,
  "\u0120javascript": 44575,
  "\u0120horizont": 13736,
  "\u0120negotiation": 24462,
  "\u0120trunk": 21427,
  "els": 1424,
  "render": 13287,
  "\u0120Jill": 22772,
  "\u0120Solid": 15831,
  "\u0120cautious": 21205,
  "\u0120Keys": 26363,
  "\u012022": 2534,
  "\u0120helpless": 21144,
  "\u0120Ludwig": 44476,
  "\u0120pragmatic": 33119,
  "\u0120Rodney": 34895,
  "{\\": 31478,
  "\u0120fortunately": 39955,
  "La": 14772,
  "oving": 5165,
  "agent": 25781,
  "\u0120subt": 13284,
  "\u0120weed": 20349,
  "nr": 48624,
  "\u0120jan": 42897,
  "fell": 23299,
  "\u0120crou": 33838,
  "\u0120finals": 18576,
  "\u0120mand": 6855,
  "_-": 22955,
  "\u0120bask": 39353,
  "\u0120inspectors": 29136,
  "\u0120Lester": 36508,
  "\u0120aftermath": 16280,
  "\u0120assumptions": 14895,
  "\u0120formidable": 24599,
  "\u0120indispensable": 35669,
  "hesda": 30049,
  "\u0120opening": 4756,
  "\u0120portrait": 18560,
  "\u0120praises": 40221,
  "Behind": 34163,
  "\u0120Subject": 15540,
  "\u0120padd": 14098,
  "elve": 9954,
  "\u0120Rosa": 27994,
  "\u0120Sand": 3837,
  "\u0120*/": 9466,
  "vell": 29333,
  "\u0120Spells": 30656,
  "\u0120norm": 2593,
  "anyl": 34816,
  "cliffe": 33783,
  "\u0120housing": 5627,
  "509": 29022,
  "\u0120merciless": 40618,
  "\u0120Pacers": 31637,
  "\u0120Ya": 26421,
  "\u0120submissions": 22129,
  "\u0120Chen": 12555,
  "olve": 6442,
  "\u0120sentimental": 46908,
  "\u0120Moonlight": 39951,
  "\u0120Publications": 40865,
  "\u0120drawbacks": 42763,
  "zee": 42871,
  "\u0120lending": 20983,
  "\u0120Thanksgiving": 21494,
  "Buff": 36474,
  "ETS": 32716,
  "\u0120Tong": 26565,
  "\u0120devoted": 13378,
  "\u0120<@": 32406,
  "\u0120boundaries": 13215,
  "\u0120philosophical": 17580,
  "\u0120unanswered": 34001,
  "\u0120*": 1635,
  "\u0120IPCC": 35814,
  "\u010a\u010a": 628,
  "ary": 560,
  "Poll": 39176,
  "\u0120lock": 5793,
  "\u0120waking": 23137,
  "\u0120dj": 42625,
  "emer": 24677,
  "ruciating": 48404,
  "Amazing": 42770,
  "mbuds": 45664,
  "ife": 901,
  "enburg": 37036,
  "lies": 13508,
  "\u0120Kansas": 9470,
  "version": 9641,
  "\u0120Movie": 15875,
  "151": 24309,
  "10000": 49388,
  "\u0120Triangle": 33233,
  "\u0120ELE": 40342,
  "\u0120believer": 29546,
  "\u0120Philosophy": 26099,
  "\u0120hedge": 19859,
  "\u0120Revolution": 9303,
  "\u0120Suk": 41218,
  "Events": 37103,
  "\u0120Tasman": 29958,
  "\u0120Trade": 9601,
  "asia": 23218,
  "essler": 33730,
  "\u0120Glock": 45152,
  "devices": 42034,
  "\u0120Scores": 44654,
  "\u0120architects": 29518,
  "\u0120destroying": 13897,
  "\u0120normally": 7685,
  "Cast": 19248,
  "The": 464,
  "\u0120emulation": 47065,
  "\u0120personality": 8806,
  "\u0120proverbial": 47327,
  "\u0120throne": 19262,
  "\u0120told": 1297,
  "\u0120continue": 2555,
  "runner": 16737,
  "sei": 36455,
  "\u0120emphasizing": 36360,
  "\u0120wat": 4383,
  "\u0120mir": 5720,
  "\u0120anecd": 22077,
  "\u0120entertaining": 17774,
  "\u00ce\u00b3": 42063,
  "\u0120~/": 47795,
  "\u0120severity": 19440,
  "\u0120difficulties": 13156,
  "\u0120Chou": 41699,
  "\u00e8\u00a6\u013c\u00e9\u0128\u0134": 23614,
  ",,": 9832,
  "\u0120FE": 18630,
  "\u0120Franc": 4682,
  "\u0120democratically": 48517,
  "\u0120antibodies": 30869,
  "\u0120discharged": 26476,
  "\u0120Schwartz": 28672,
  "\u0120fleet": 11026,
  "\u0120Tags": 44789,
  "Va": 33906,
  "\u0120Micro": 4527,
  "\u0120consequently": 25578,
  "ithering": 40861,
  "\u0120Presbyterian": 44150,
  "\u0120Outdoor": 43047,
  "ijah": 32778,
  "\u0120manual": 10107,
  "Token": 30642,
  "Cola": 28635,
  "\u0120affects": 10975,
  "\u0120veterinary": 38435,
  "LAND": 28182,
  "\u0120Shining": 23136,
  "\u0120shrink": 22085,
  "\u0120yet": 1865,
  "\u0120Remain": 42606,
  "omics": 31994,
  "\u0120constant": 6937,
  "estead": 37897,
  "ooters": 48316,
  "\u0120Second": 5498,
  "\u0120=====": 29335,
  "lock": 5354,
  "\u0120NXT": 43308,
  "\u0120Painting": 48892,
  "\u0120crawl": 27318,
  "Runner": 49493,
  "\u0120honestly": 12698,
  "integ": 18908,
  "\u0120inv": 800,
  "\u0120imitate": 44638,
  "\u0120ladder": 18002,
  "urdue": 30345,
  "Audio": 21206,
  "\u0120leak": 13044,
  "\u0120HERE": 15698,
  "\u0120Permanent": 36814,
  "\u0120passers": 45378,
  "\u0120Bore": 45409,
  "\u0120historically": 15074,
  "\u0120plotted": 37515,
  "\u0120They": 1119,
  "\u0120society": 3592,
  "\u0120Malf": 32197,
  "ppelin": 48425,
  "\u0120Osw": 30317,
  "Failure": 50015,
  "\u0120Governments": 40343,
  "ateral": 10534,
  "\u0120declared": 6875,
  "\u0120borne": 28068,
  "\u0120conferences": 19993,
  "Reply": 36875,
  "\u0120punk": 22782,
  "\u0120\u00e2\u012b\u00a4": 41305,
  "\u0120UTC": 18119,
  "ENTION": 45589,
  "ribute": 4163,
  "\u0120Avg": 33455,
  "\u0120Govern": 3948,
  ")).": 29720,
  "\u0120inmate": 28414,
  "\u0120stores": 7000,
  "ord": 585,
  "\u0120Wait": 16314,
  "Marcus": 35110,
  "aml": 43695,
  "\u0120Cellular": 50072,
  "sun": 19155,
  "child": 9410,
  "\u0120ch": 442,
  "icent": 36712,
  "\u0120partition": 18398,
  "ject": 752,
  "ogenous": 27897,
  "\u0120Lane": 15016,
  "\u0120TG": 44121,
  "\u0120blush": 37854,
  "\u0120hosting": 13662,
  "\u0120descriptive": 35644,
  "\u0120Information": 6188,
  "\u0120say": 910,
  "Empty": 40613,
  "psey": 39070,
  "\u0120Trooper": 47438,
  "\u0120fetch": 21207,
  "\u0120obtain": 7330,
  "\u0120Juliet": 38201,
  "\u0120teaching": 7743,
  "\u0120garage": 15591,
  "wise": 3083,
  "cons": 5936,
  "edo": 24757,
  "\u0120Celebr": 28921,
  "\u0120Dynasty": 30908,
  "\u0120Tao": 32120,
  "\u0120morale": 29651,
  "\u0120widow": 27075,
  "ogi": 44381,
  "amm": 6475,
  "\u0120GMOs": 46135,
  "\u0120Baltimore": 10346,
  "100": 3064,
  "ared": 1144,
  "ginx": 42822,
  "nuclear": 43131,
  "\u0120Respond": 33556,
  "\u0120Risk": 19602,
  "beck": 27343,
  "ussion": 11956,
  "\u012056": 7265,
  "\u0120actress": 14549,
  "\u0120cocoa": 35845,
  "\u0120G": 402,
  "\u0120Plays": 38116,
  "\u0120conservatism": 33933,
  "\u0120digestion": 44639,
  "\u0120Lazarus": 49093,
  "364": 26780,
  "\u0120Slayer": 27076,
  "\u0120depends": 8338,
  "\u0120diverted": 35673,
  "\u0120emer": 3165,
  "\u0120BU": 20571,
  "\u0120ra": 2179,
  "\u0120rendered": 15111,
  "\u0120solitary": 25565,
  "\u0120suggesting": 9524,
  "male": 22606,
  "\u0120ultrasound": 37721,
  "\u0120unemployed": 21021,
  "ane": 1531,
  "\u0120slim": 18862,
  "\u0120travellers": 37217,
  "\u0120Consolid": 43419,
  "shake": 32431,
  "\u0120Range": 13667,
  "\u0120behavior": 4069,
  "\u0120coordinated": 22080,
  "\u0120amazed": 24562,
  "\u0120coup": 12092,
  "bt": 18347,
  "BC": 2749,
  "nance": 41601,
  "\u0120delight": 10974,
  "\u0120hanged": 40597,
  "Georg": 33428,
  "urga": 45098,
  "\u0120qualify": 12780,
  "\u0120grocery": 16918,
  "\u0120Late": 18319,
  "opped": 38333,
  "region": 36996,
  "\u0120Setup": 31122,
  "78": 3695,
  "\u0120Hamb": 26175,
  "\u0120Singh": 14403,
  "bsite": 12485,
  "\u0120folklore": 46623,
  "\u0120traject": 20134,
  "\u0120commem": 19512,
  "\u0120courageous": 34010,
  "\u0120might": 1244,
  "\u0120deepening": 46539,
  "\u0120partnered": 29806,
  "\u0120patio": 39660,
  "\u0120linem": 22774,
  "\u0120Jet": 19013,
  "\u0120foo": 22944,
  "\u0120para": 31215,
  "iffe": 22391,
  "188": 20356,
  "\u0120Sabha": 41941,
  "\u0120congen": 41174,
  "MHz": 25983,
  "romeda": 32291,
  "urtles": 25195,
  "matter": 47635,
  "\u0120Dinosaur": 47808,
  "\u0120PA": 8147,
  "\u0120Roma": 29600,
  "\u0120Statements": 44936,
  "\u0120marathon": 22336,
  "\u0120money": 1637,
  "\u0120analyzed": 15475,
  "\u0120Ring": 12569,
  "arted": 19112,
  "\u0120Slime": 30448,
  "\u0120identify": 5911,
  "\u0120investig": 2009,
  "\u0120supervisor": 21277,
  "\u0120Osc": 40203,
  "\u0120studied": 9713,
  "Eth": 40226,
  "\u0120Root": 20410,
  "\u0120custod": 33702,
  "\u0120dopamine": 26252,
  "\u0120existence": 6224,
  "Depths": 42382,
  "\u0120respective": 11756,
  "\u0120logic": 9156,
  "\u01201989": 11104,
  "\u0120Angel": 3905,
  "\u0120405": 36966,
  "\u0120Groups": 27441,
  "\u0120blockade": 30974,
  "\u0120grocer": 34185,
  "\u0120surely": 10403,
  "Mods": 24239,
  "\u0120planetary": 27047,
  "\u0120Daw": 17552,
  "\u0120beacon": 34538,
  "Fab": 43957,
  "ademic": 49113,
  "725": 45151,
  "posted": 40578,
  "\u0120merit": 17004,
  "\u0120darker": 18646,
  "livion": 26018,
  "iphany": 49915,
  "\u0120pain": 2356,
  "venants": 43773,
  "\u0120Tommy": 19919,
  "tz": 22877,
  "reath": 19367,
  "\u00c2\u00af\u00c2\u00af": 5367,
  "\u0120Algeria": 36498,
  "\u0120Mam": 29926,
  "\u0120relatively": 5365,
  "\u0120Thiel": 42511,
  "lease": 1274,
  "\u0120archaic": 40435,
  "\u0120assorted": 46603,
  "\u0120Jorge": 34687,
  "\u0120dag": 48924,
  "\u0120doubts": 17188,
  "ersion": 6900,
  "\u0120praising": 33557,
  "\u0120Usually": 19672,
  "\u0120refined": 20449,
  "\u0120seeker": 45993,
  "\u0120sparks": 38306,
  "\u0120whales": 24635,
  "\u0120Slam": 30382,
  "\u0120Meter": 46423,
  "\u0120mouths": 28552,
  "\u0120socialists": 43005,
  "\u0120transactions": 8945,
  "ikini": 35542,
  "\u0120fare": 14505,
  "\u0120congrat": 19833,
  "\u0120Lansing": 49860,
  "\u0120informs": 30375,
  "\u0120credential": 49920,
  "\u0120Gauntlet": 48941,
  "ess": 408,
  "\u0120Wyr": 45988,
  "\u0120dod": 20764,
  "\u0120Slack": 36256,
  "\u0120Peter": 5613,
  "\u0120frustrated": 14718,
  "ifa": 19215,
  "atism": 26185,
  "join": 22179,
  "\u0120output": 5072,
  "omial": 49070,
  "\u0120ele": 9766,
  "\u0120OUT": 16289,
  "\u0120Reports": 17905,
  "\u0120thinker": 45206,
  "\u0120DPR": 41176,
  "\u0120Mold": 29684,
  "\u0120agony": 35358,
  "\u0120liberation": 22256,
  "\u0120quarter": 3860,
  "\u0120gust": 35253,
  "\u0120playoffs": 12980,
  "\u0120string": 4731,
  "Post": 6307,
  "\u0120OP": 13349,
  "\u0120Seah": 16214,
  "\u0120Subjects": 43815,
  "escap": 50141,
  "IC": 2149,
  "\u0120Crazy": 19932,
  "ickers": 21630,
  "\u0120Romero": 38623,
  "\u0120rebellious": 43860,
  "vice": 28281,
  "\u0120Eighth": 41040,
  "\u00e5\u012f": 39355,
  "\u0120fearsome": 46056,
  "\u0120resemblance": 28204,
  "annon": 8825,
  "\u0120ital": 46127,
  "young": 35465,
  "worthiness": 48756,
  "\u0120King": 2677,
  "\u0120composition": 11742,
  "Virginia": 41017,
  "\";": 8172,
  "steamapps": 31881,
  "Sus": 30746,
  "\u0120convertible": 41637,
  "\u0120cortical": 35001,
  "\u0120fertil": 19078,
  "\u0120Color": 5315,
  "\u0120variable": 7885,
  "\u0120Hills": 14379,
  "\u0120Lisp": 38593,
  "enged": 47422,
  "\u0120Union": 4479,
  "\u0120360": 11470,
  "Times": 28595,
  "\u0120Pokemon": 14878,
  "\u0120Tales": 15214,
  "\u0120coloring": 33988,
  "\u0120Meg": 8336,
  "\u0120dissatisfaction": 41393,
  "leneck": 43163,
  "\u0120anticipating": 40807,
  "\u0120mastermind": 41353,
  "\u0120Physical": 16331,
  "274": 28857,
  "Ps": 12016,
  "employed": 36266,
  "them": 18855,
  "\u0120diner": 47519,
  "\u0120pursu": 8238,
  "\u0120assertions": 29965,
  "\u0120Gothic": 38845,
  "\u0120CAS": 35106,
  "\u0120spiked": 38927,
  "\u0120totals": 26310,
  "\u00e2\u013b\u00a5": 39908,
  "\u0120supporters": 5941,
  "\u0120Flat": 21939,
  "\u0120retrie": 13236,
  "\u0120sudden": 4802,
  "\u0120utter": 10517,
  "covered": 32111,
  "\u0120Potato": 43876,
  "\u0120probing": 41034,
  "\u0120QUEST": 43658,
  "\u0120autop": 22320,
  "\u0120wavelength": 28400,
  "oldemort": 24710,
  "\u01201907": 41435,
  "\u0120comple": 1224,
  "\u0120cyn": 19768,
  "\u0120reperc": 32846,
  "HCR": 43230,
  "omaly": 24335,
  "ackets": 25180,
  "auntlet": 32633,
  "\u0120McKay": 37946,
  "\u0120piece": 3704,
  "basketball": 21265,
  "ctuary": 15258,
  "isible": 12843,
  "\u0120Mercenary": 49969,
  "\u0120reputable": 40300,
  "\u0120sugar": 7543,
  "\u0120JPM": 40145,
  "\u0120Hacker": 34399,
  "clinton": 37821,
  "Source": 7416,
  "\u0120intercourse": 22409,
  "\u0120audiences": 15579,
  "\u0120Telegram": 50203,
  "\u0120microwave": 27000,
  "owner": 18403,
  "628": 48200,
  "interpret": 27381,
  "atible": 16873,
  "\u0120Latin": 9133,
  "\u0120Sean": 11465,
  "Support": 15514,
  "\u0120airs": 37112,
  "\u0120f": 277,
  "689": 40523,
  "stab": 39029,
  "\u0120fascists": 48594,
  "303": 22572,
  "\u0120awareness": 9359,
  "Buzz": 48230,
  "\u0120moves": 6100,
  "\u0120date": 3128,
  "Choose": 31851,
  "ical": 605,
  "\u0120Round": 10485,
  "Known": 29870,
  "\u0120Children": 8990,
  "\u0120Secondly": 34276,
  "\u0120brunt": 48850,
  "\u0120Likes": 46077,
  "\u0120indicators": 21337,
  "ordan": 7350,
  "Michael": 13256,
  "\u0120studies": 3640,
  "\u0120abduct": 24827,
  "achelor": 19335,
  "itbart": 17868,
  "\u0120disastrous": 20756,
  "\u0120locked": 8970,
  "\u0120prol": 13286,
  "imilar": 49941,
  "?).": 29865,
  "\u0120Logic": 30146,
  "\u0120maximizing": 48350,
  "Huh": 46010,
  "ITCH": 31949,
  "riages": 16451,
  "\u0120pigs": 22333,
  "\u0120prostitute": 37833,
  "amera": 18144,
  "\u0120casts": 26217,
  "\u0120outings": 47280,
  "iterranean": 19012,
  "\u0120DUI": 39414,
  "\u0120revolution": 5854,
  "\u0120Thinking": 30707,
  "\u0120astroph": 48782,
  "\u0120server": 4382,
  "Exception": 16922,
  "esthesia": 34811,
  "ibilities": 7992,
  "\u0120Besides": 16238,
  "\u0120Ending": 43626,
  "health": 13948,
  "\u0120necessary": 3306,
  "perial": 7629,
  "612": 43610,
  "44": 2598,
  "\u0120Detroit": 8488,
  "\u0120installations": 26162,
  "umph": 12875,
  "\u0120motivations": 28140,
  "\u0120prerequisite": 43119,
  "Construct": 42316,
  "Form": 8479,
  "emin": 14857,
  "\u0120SYSTEM": 36230,
  "\u0120tricked": 42608,
  "\u0120wiser": 47897,
  "\u0120Akron": 45868,
  "\u0120hailed": 27052,
  "\u0142": 254,
  "aho": 17108,
  "\u0120bet": 731,
  "\u0120gap": 7625,
  "olars": 7828,
  "\u0120Fri": 19480,
  "\u0120bloodstream": 46005,
  "\u0120preceded": 27165,
  "\u0120uprising": 26312,
  "\u0120plaintiffs": 21880,
  "folk": 19956,
  "\u0120Assets": 41059,
  "\u0120cla": 26435,
  "Certain": 26469,
  "irteen": 22530,
  "\u0120Ex": 1475,
  "okers": 18698,
  "\u0120worldwide": 8688,
  "dos": 37427,
  "886": 44980,
  "\u0120Survivors": 45998,
  "\u0120Words": 23087,
  "\u0120poorer": 26647,
  "\u0120AQ": 39514,
  "\u0120Moore": 8877,
  "\u0120acquired": 9477,
  "\u0120snap": 11495,
  "ochemistry": 37074,
  "Hunter": 38803,
  "\u0120disagreements": 37990,
  "\u0120FOIA": 41245,
  "\u0120Texas": 3936,
  "\u0120disparity": 30137,
  "\u0120inhabitants": 17622,
  "media": 11431,
  "\u0120diploma": 41220,
  "\u0120mammals": 23426,
  "\u0120walk": 2513,
  "\u0120billions": 13188,
  "ameless": 39942,
  "grass": 29815,
  "\u0120Dill": 44322,
  "\u0120panties": 31571,
  "brand": 17938,
  "\u0120Bulgarian": 42119,
  "\u0120ideology": 12959,
  "485": 32642,
  "\u0120twin": 15203,
  "stitial": 18167,
  "\u0120Dmitry": 45181,
  "\u0120torn": 12445,
  "\u0120abolish": 35531,
  "\u0120Isabel": 41838,
  "arag": 29967,
  "\u0120ageing": 41310,
  "\u0120Corker": 44421,
  "ated": 515,
  "\u0120nuances": 42160,
  "\u0120glimpse": 19350,
  "ournaments": 16950,
  "\u0120drank": 24070,
  "icka": 29873,
  "uctor": 33029,
  "\u0120transgender": 10637,
  "css": 25471,
  "\u0120respectfully": 41177,
  "\u0120McC": 5108,
  "/-": 16327,
  "Golden": 32378,
  "abc": 39305,
  "................": 4181,
  "pict": 18847,
  "\u0120outlines": 27430,
  "\u0120Semin": 40563,
  "\u0120preparation": 11824,
  "Scott": 19040,
  "\u0120tallest": 38760,
  "\u0120cart": 6383,
  "\u0120drained": 29738,
  "\u0120singles": 25287,
  "aren": 5757,
  "\u00d4": 144,
  "\u0120prowess": 30721,
  "$.": 35307,
  "006": 28041,
  "urat": 39928,
  "\u0120guardian": 21688,
  "\u0120unusually": 23708,
  "phrine": 47723,
  "418": 39667,
  "ough": 619,
  "OVA": 41576,
  "killing": 43764,
  "\u0120120": 7982,
  "Overview": 29064,
  "\u0120Federation": 11937,
  "\u0120Beautiful": 23762,
  "\u0120Trog": 35791,
  "\u0120Fourth": 15692,
  "anding": 27225,
  "\u0120scream": 8196,
  "control": 13716,
  "\u0120Payment": 28784,
  "\u0120Sort": 33947,
  "\u0120economists": 16816,
  "\u0120postwar": 44060,
  "\u0120Signal": 26484,
  "\u0120clipping": 45013,
  "Marsh": 41984,
  "itudinal": 29121,
  "Qaeda": 19058,
  "Flickr": 47250,
  "soon": 36194,
  "\u0120HMS": 44247,
  "\u0120Surface": 20321,
  "\u0120miscar": 35976,
  "majority": 35839,
  "PRES": 48296,
  "!,": 28265,
  "Dead": 20489,
  "\u0120depths": 21593,
  "Rob": 14350,
  "American": 7437,
  "\u0120Hok": 26467,
  "\u0120Merrill": 40418,
  "ACTION": 44710,
  "checked": 26752,
  "est": 395,
  "\u0120Mor": 3461,
  "Victoria": 49898,
  "\u0120binding": 12765,
  "\u0120dispers": 39895,
  "\u0120exhibited": 25212,
  "ungle": 13687,
  "services": 30416,
  "198": 22337,
  "\u0120Rah": 18655,
  "\u01201400": 36641,
  "\u0120grossly": 40316,
  "\u0120lay": 3830,
  "\u0120modules": 13103,
  "\u0120past": 1613,
  "\u0120robes": 32970,
  "\u0120Video": 7623,
  "\u0120embryonic": 49710,
  "\u0120interviewed": 12299,
  "428": 40173,
  "\u0120needed": 2622,
  "\u0120seeking": 6095,
  "ath": 776,
  "eyed": 18834,
  "reating": 34567,
  "\u0120Brookings": 44924,
  "aganda": 43589,
  "\u0120Green": 3469,
  "rit": 799,
  "\u0120berth": 45015,
  "Render": 45819,
  "850": 25764,
  "uming": 12595,
  "Ca": 24334,
  "ipeg": 21700,
  "\u00e2\u0124\u00ac": 26391,
  "\u0120Approximately": 40453,
  "\u0120Caucus": 31787,
  "\u0120collapse": 9807,
  "\u0120pushed": 7121,
  "\u0120acknowled": 7333,
  "hander": 44510,
  "\u0120Sidney": 35727,
  "Lair": 40041,
  "habi": 37362,
  "\u0120sinners": 49279,
  "bone": 15992,
  "\u0120sliced": 26790,
  "\u0120306": 37255,
  "mos": 16785,
  "\u0120Suz": 22691,
  "\u0120Cincinnati": 16137,
  "Australia": 27429,
  "\u0120CTR": 34577,
  "\u0120founders": 22202,
  "EEK": 33823,
  "\u0120Sylv": 24286,
  "\u0120percept": 34953,
  "\u0120southeastern": 35618,
  "\u0120\u00c2\u00b1": 6354,
  "\u0120forged": 24918,
  "\u0120rehab": 14321,
  "\u0120Upon": 14438,
  "\u0120beta": 12159,
  "umsy": 37133,
  "\u0120Correspond": 34428,
  "\u0120disable": 15560,
  "\u0120divest": 41905,
  "exclusive": 41195,
  "\u0120Attempt": 25770,
  "containing": 38301,
  "\u0120package": 5301,
  "\u0120protr": 39701,
  "\u0120rm": 42721,
  "\u0120timber": 30605,
  "\u0120Syrians": 26648,
  "alli": 36546,
  "anamo": 33524,
  "igrated": 38769,
  "?\"": 1701,
  "\u0120shotguns": 47392,
  "Romney": 42184,
  "pei": 33265,
  "\u0120inequalities": 45460,
  "\u0120Iraq": 3908,
  "\u0120stupid": 8531,
  "@#&": 48193,
  "Aw": 23155,
  "499": 28324,
  "Pa": 28875,
  "ales": 2040,
  "\u0120Tau": 36849,
  "\u0120side": 1735,
  "\u0120));": 29226,
  "\u0120Resolution": 22406,
  "tops": 35011,
  "\u0120LinkedIn": 27133,
  "\u0120Witness": 21440,
  "\u0120suspensions": 47228,
  "\u0120Marcus": 17068,
  "][/": 44926,
  "\u0120cris": 4442,
  "\u0120unity": 14111,
  "\u0120discredit": 34019,
  "\u0120sens": 3054,
  "\u0120lit": 6578,
  "\u0120Valid": 48951,
  "\u0120correl": 10895,
  "ilight": 15512,
  "\u0120oun": 16103,
  "amic": 18127,
  "\u0120Nike": 23817,
  "\u0120settling": 25446,
  "\u0120shows": 2523,
  "capacity": 42404,
  "\u0120Pizza": 20952,
  "\u0120motherboard": 32768,
  "quarters": 8230,
  "\u0120hardly": 8941,
  "\u0120antitrust": 42766,
  "\u0120('": 19203,
  "\u0120Cons": 3515,
  "\u0120Ram": 7431,
  "\u0120Schwar": 29726,
  "\u0120Kejriwal": 42792,
  "\u0120Newsletter": 35798,
  "\u0120Norwegian": 22158,
  "Planet": 41801,
  "\u0120crates": 40382,
  "\u0120Urban": 14665,
  "\u0120delighted": 20707,
  "\u0120Rouse": 44122,
  "\u0120electrode": 46203,
  "ominated": 50251,
  "points": 13033,
  "\u0120Mister": 43438,
  "\u0120resilience": 31307,
  "\u0120suites": 45861,
  "\u0120reward": 6721,
  "\u0120Liqu": 35515,
  "AI": 20185,
  "\u0120flanked": 49059,
  "ECT": 9782,
  "\u0120Dame": 20377,
  "383": 34741,
  "\u0120elevated": 15321,
  "etermin": 13221,
  "\u0120pos": 1426,
  "\u0120swapped": 37245,
  "\u0120Fear": 16132,
  "rotein": 35574,
  "\u0120Colombian": 40351,
  "\u0120Aliens": 39301,
  "\u0120ampl": 12306,
  "\u0120outdoor": 15162,
  "\u0120Yen": 47028,
  "\u0120enchant": 23260,
  "\u0120wrestling": 16381,
  "Fuck": 34094,
  "\u0120agreement": 4381,
  "\u0120GNU": 22961,
  "\u0120quota": 32539,
  "Vel": 46261,
  "\u01201961": 20510,
  "\u0120sailing": 28499,
  "iliar": 4797,
  "\u0120Lighting": 43150,
  "\u0120territory": 7674,
  "\u0120Eth": 9956,
  "\u0120greets": 45204,
  "Davis": 36462,
  "Nazi": 31343,
  "lyak": 43782,
  "Boy": 26554,
  "umin": 7230,
  "tten": 32407,
  "\u0120Neil": 15929,
  "\u0120appease": 47316,
  "\u0120hassle": 32721,
  "\u0120twenty": 8208,
  "esson": 39670,
  "\u0120421": 49294,
  "Where": 8496,
  "status": 13376,
  "afi": 19910,
  "ach": 620,
  "\u0120Hod": 22816,
  "features": 40890,
  "lower": 21037,
  "\u0120PBS": 30051,
  "Set": 7248,
  "var": 7785,
  "\u0120func": 25439,
  "coat": 31434,
  "\u0120resting": 19186,
  "0200": 44613,
  "YES": 43335,
  "\u0120Jenny": 28437,
  "\u0120seniors": 23481,
  "\u0120spawn": 10922,
  "Li": 32304,
  "\u0120clay": 21558,
  "\u0120stressing": 43455,
  "straight": 42729,
  "ohyd": 15782,
  "\u0120Dar": 7491,
  "\u0120Developers": 34152,
  "\u0120neighbors": 12020,
  "\u0120required": 2672,
  "\u0120Eval": 26439,
  "\u0120results": 2482,
  "\u0120silicone": 35804,
  "\u0120Obamacare": 12439,
  "instance": 39098,
  "OT": 2394,
  "\u0120healthy": 5448,
  "\u0120learnt": 26338,
  "\u0120Bust": 36988,
  "\u0120transports": 45245,
  "\u0120within": 1626,
  "pora": 38851,
  "\u0120safeguard": 30925,
  "rieved": 28130,
  "\u0120fragmentation": 42965,
  "\u0120adequate": 12872,
  "\u0120dexter": 44405,
  "\u0120blame": 8138,
  "ARK": 14175,
  "Craft": 14467,
  "\u0120maternity": 38057,
  "amus": 25509,
  "\u0120goofy": 44089,
  "\u0120burned": 11544,
  "\u0120407": 41879,
  "\u0120whims": 38411,
  "rance": 8132,
  "ategic": 47917,
  "\u0120Bank": 5018,
  "\u0120Spac": 39230,
  "\u0120proactive": 33943,
  "\u0120Torch": 34868,
  "\u0120Export": 36472,
  "\u0120anything": 1997,
  "\u0120uncle": 7711,
  "four": 14337,
  "\u0120Barnett": 38174,
  "\u0120Origins": 24079,
  "etsk": 29515,
  "\u0120blueprint": 30881,
  "Pear": 46262,
  "\u0120Harvard": 11131,
  "\u0120recipients": 20352,
  "\u0120tru": 45768,
  "\u0120numeric": 35575,
  "oused": 29997,
  "\u0120CONFIG": 25626,
  "\u0120recons": 23898,
  "\u0120microscopic": 41858,
  "\u0120(>": 45160,
  "\u0120category": 6536,
  "\u0120intra": 23422,
  "\u0120snapping": 35733,
  "iii": 15479,
  "\u0120aromatic": 48440,
  "illus": 44342,
  "\u0120Unix": 33501,
  "208": 21315,
  "\u0120appealing": 16403,
  "igan": 5516,
  "149": 19442,
  "\u0120Beaver": 42746,
  "ttle": 23296,
  "\u0120Horton": 46051,
  "\u0120assumed": 9672,
  "fix": 13049,
  "\u0120interface": 7071,
  "\u0120uncond": 31776,
  "\u0120pilots": 14982,
  "|": 91,
  "\u0120even": 772,
  "388": 30460,
  "\u00e3\u0123\u0126": 18566,
  "\u0120AND": 5357,
  "\u0120Aboriginal": 26432,
  "five": 13261,
  "\u0120FIX": 44855,
  "Poly": 34220,
  "\u0120riot": 16352,
  "PDF": 20456,
  "collar": 37676,
  ">\"": 24618,
  "Aud": 16353,
  "Sir": 22788,
  "zb": 14969,
  "\u0120draw": 3197,
  "\u0120Akira": 46910,
  "ixtures": 25506,
  "\u0120exercised": 25805,
  "\u0120FAQ": 18749,
  "\u0120bodies": 5920,
  "\u0120pavement": 31726,
  "\u0120Mont": 5575,
  "\u0120insurers": 24668,
  "\u0120Pastebin": 29582,
  "\u0120Peoples": 41770,
  "\u0120interfaces": 20314,
  "\u0120correlation": 16096,
  "addle": 37382,
  "Charles": 28711,
  "\u0120Panic": 34478,
  "\u0120falsely": 24566,
  "\u0120CST": 46429,
  "\u0120East": 3687,
  "umping": 25218,
  "\u0120larg": 2552,
  "\u0120prisoners": 10577,
  "\u0120truce": 39854,
  "Express": 38839,
  "\u0120ticks": 36066,
  "\u0120Rainbow": 19909,
  "charg": 11121,
  "????????": 35709,
  "%).": 18823,
  "ranked": 28282,
  "advertising": 34442,
  "son": 1559,
  "\u0120([": 29565,
  "\u0120Kingdoms": 35781,
  "\u0120never": 1239,
  "\u0120soc": 1307,
  "/)": 34729,
  "Effects": 47738,
  "\u0120negotiator": 49194,
  "\u0120fals": 27807,
  "\u0120closure": 16512,
  "\u0120interf": 9556,
  "\u0120Lund": 33609,
  "\u0120biodiversity": 37589,
  "\u0120linux": 32639,
  "Length": 24539,
  "Edward": 43982,
  "gi": 12397,
  "Steel": 39807,
  "Senator": 29774,
  "\u0120Ro": 5564,
  "\u0120carving": 39510,
  "\u0120mutants": 39456,
  "odiac": 40096,
  "\u0120orange": 10912,
  "\u0120partnerships": 22867,
  "\u0120recorder": 38156,
  "ulk": 12171,
  "\u0120usb": 38551,
  "\u01201890": 31982,
  "\u0120departments": 13346,
  "\u0120Family": 7884,
  "IAS": 43429,
  "\u0120Guidelines": 31072,
  "\u0120MB": 10771,
  "fx": 21373,
  "\u0120lever": 17124,
  "\u0120absurdity": 41793,
  "\u0120falls": 8953,
  "pathic": 38829,
  "Ware": 38824,
  "\u0120Clint": 21549,
  "\u0120annexed": 49181,
  "\u0120Mothers": 49673,
  "\u0120detriment": 42959,
  "offset": 28968,
  "\u0120asphalt": 48292,
  "\u0120consisted": 19954,
  "\u0120frontier": 27580,
  "\u0120summarizes": 46145,
  "\u0120nice": 3621,
  "icer": 16647,
  "\u0120Val": 3254,
  "\u0120accurate": 7187,
  "\u0120audi": 40504,
  "itivity": 11365,
  "RAG": 33202,
  "\u0120axle": 41066,
  "\u0120earn": 5160,
  "Termin": 44798,
  "\u0120heats": 37876,
  "\u0120oversees": 31806,
  "\u0120substr": 47294,
  "\u0120}": 1782,
  "\u0120grizz": 46307,
  "\u0120Wick": 36029,
  "Lay": 23763,
  "\u0120imaginable": 40758,
  "\u0120yielded": 26403,
  "crypt": 29609,
  "\u0120Kell": 25043,
  "\u0120advisors": 32456,
  "CT": 4177,
  "aed": 8432,
  "\u0120Secrets": 23561,
  "\u0120Nicholas": 20320,
  "\u0120perish": 42531,
  "\u0120Productions": 25315,
  "\u0120redundant": 30806,
  "widget": 42655,
  "\u0120grandson": 31845,
  "bral": 24427,
  "\u0120Invasion": 25484,
  "tri": 28461,
  "\u0120Lessons": 46885,
  "\u0120Fenrir": 39394,
  "stant": 18797,
  "\u0120Sullivan": 18501,
  "\u0120waterproof": 35158,
  "acteria": 10634,
  "\u0120RM": 29820,
  "Welcome": 14618,
  "ologies": 5823,
  "\u0120Private": 15348,
  "York": 49278,
  "\u0120Its": 6363,
  "Joined": 24363,
  "\u0120daring": 27939,
  "\u0120independent": 4795,
  "\u0120chest": 7721,
  "GV": 37094,
  "each": 27379,
  "\u0120Greek": 8312,
  "\u0120Lieutenant": 21586,
  "Because": 8128,
  "\u0120Prol": 44157,
  "\u0120espresso": 48247,
  "\u0120appro": 1331,
  "\u0120obfusc": 44080,
  "asty": 7833,
  "oway": 41788,
  "\u00e8\u00aa": 45739,
  "ivia": 20817,
  "\u0120Armageddon": 49034,
  "\u0120succumb": 33505,
  "\u0120Armed": 16657,
  "\u0120pornography": 18384,
  "\u0120favoured": 38931,
  ".............": 44274,
  "\u0120speculate": 26256,
  "anced": 2903,
  "\u0120halt": 17369,
  "admin": 28482,
  "\u0120fame": 16117,
  "\u0120Rat": 11738,
  "repair": 49932,
  "political": 23149,
  "\u0120cancer": 4890,
  "\u0120refreshed": 47193,
  "Label": 33986,
  "\u0120802": 33121,
  "\u0120treason": 32204,
  "\u0120Adjusted": 45624,
  "\u0120Signs": 37027,
  "\u0120TE": 13368,
  "\u0120collateral": 27907,
  "\u0120narrowing": 46426,
  "agra": 45429,
  "\u0120Adin": 45528,
  "ceans": 19961,
  "seeing": 42041,
  "\u0120Orth": 47664,
  "Bloom": 38941,
  "\u0120unpre": 11771,
  "cmd": 28758,
  "Tor": 15884,
  "Roll": 26869,
  "\u0120strength": 4202,
  "\u0120GI": 30616,
  "\u0120Budd": 8578,
  "\u0120arrive": 9240,
  "\u01201971": 16382,
  "\u0120defic": 12630,
  "ountain": 18635,
  "(\\": 38016,
  "Common": 17227,
  "\u0120fru": 12658,
  "\u0120unp": 8593,
  "\u0120instinctively": 43045,
  "may": 11261,
  "vik": 28930,
  "../": 40720,
  "Far": 21428,
  "\u0120differentiate": 28754,
  "\u0120jerseys": 36354,
  "\u0120overshadowed": 43861,
  "\u0120undeniable": 36332,
  "\u0120descriptions": 16969,
  "261": 30057,
  "\u0120deleg": 8570,
  "enium": 47477,
  "\u0120Because": 4362,
  "\u0120Racer": 39359,
  "\u0120complained": 13832,
  "\u0120vir": 5709,
  "\u0120Fig": 12138,
  "\u0120probes": 33124,
  "\u0120Someone": 17877,
  "\u0120arsenal": 24375,
  "\u0120Explore": 41401,
  "\u0120fruitful": 44474,
  "\u0120HRC": 40512,
  "\u0120ooz": 49564,
  "_-_": 31386,
  "erving": 14344,
  "rers": 27736,
  "\u0120Benz": 47891,
  "\u0120descendant": 45923,
  "\u0120ambush": 34298,
  "install": 17350,
  "\u0120Modest": 42810,
  "\u0120Selling": 47919,
  "\u00e3\u0123\u00a3": 33180,
  "\u0120Modern": 12495,
  "\u0120imposition": 38091,
  "Stretch": 39181,
  "idden": 4651,
  "\u0120Powers": 20668,
  "\u01202010": 3050,
  "uci": 42008,
  "\u0120Hyde": 30785,
  "\u0120Bahamas": 45726,
  "\u0120classroom": 15806,
  "faith": 41751,
  "\u0120Convers": 32200,
  "\u0120drug": 2563,
  "\u0120pedal": 26667,
  "flix": 10046,
  "Whe": 10842,
  "\u00c3\u00a3o": 28749,
  "\u0120Pope": 13258,
  "\u0120amused": 36979,
  "\u0120Rock": 4631,
  "Cong": 18649,
  "\u0120Armenian": 29388,
  "\u0120Scarlett": 45046,
  "successfully": 37351,
  "\u0120Marc": 13067,
  "\u0120calculations": 16765,
  "\u0120spirit": 4437,
  "\u0120whe": 483,
  "\u0120Level": 5684,
  "\u0120Gardner": 27911,
  "\u0120Mang": 27609,
  "F": 37,
  "\u0120guru": 35730,
  "\u0120professor": 6240,
  "\u0120PAC": 16741,
  "\u0120favourite": 12507,
  "\u0120Wealth": 35151,
  "Tact": 45803,
  "j": 73,
  "....": 1106,
  "\u0120fluor": 26967,
  "\u0120champ": 24092,
  "\u0120flavour": 29254,
  "\u0120climate": 4258,
  "\u0120repairing": 39005,
  "arer": 11258,
  "\u0120multi": 5021,
  "\u0120zone": 6516,
  "\u0120resources": 4133,
  "\u0120Dos": 43976,
  "\u0120Weight": 14331,
  "\u0120tactic": 18543,
  "={": 34758,
  "Viol": 33894,
  "\u0120airst": 20253,
  "884": 40353,
  "\u0120shed": 14999,
  "ittees": 13263,
  "ocrine": 38658,
  "Wal": 21902,
  "\u00c3\u00b8": 24172,
  "elected": 28604,
  "\u0120vitro": 30590,
  "\u0120Xan": 47482,
  "Across": 40553,
  "anners": 15672,
  "iator": 38585,
  "wolf": 18829,
  "\u0120Hogan": 25316,
  "\u0120Prototype": 48954,
  "\u0120conservation": 14903,
  "\u0120disclaimer": 37592,
  "\u0120Cousins": 32644,
  "\u0120Coffin": 44159,
  "\u0120Violence": 20908,
  "\u0120fascist": 28342,
  "\u00e6\u0126": 35707,
  "\u0120benefit": 4414,
  "Dam": 14550,
  "\u0120iconic": 14133,
  "\u0120training": 3047,
  "\u0120yak": 46251,
  "\u0120Jugg": 39296,
  "\u0120frig": 36780,
  "\u0120222": 27795,
  "\u0120goodies": 39863,
  "\u0120invasion": 11796,
  "Los": 28903,
  "apter": 3429,
  "abin": 6014,
  "\u0120).": 6739,
  "\u0120fielding": 43985,
  "\u0120fractured": 34051,
  "\u0120heavier": 20140,
  "019": 30484,
  "ilated": 40080,
  "\u0120Bulgaria": 27902,
  "\u0120Vietnam": 10836,
  "\u0120bubble": 14310,
  "\u0120dialogue": 10721,
  "\u0120Kid": 16828,
  "arching": 38270,
  "chini": 45045,
  "bi": 8482,
  "Vers": 34947,
  "ihadi": 42449,
  "408": 26200,
  "cop": 22163,
  "ivated": 30829,
  "\u0120SAP": 48323,
  "\u0120fol": 5955,
  "Cho": 22164,
  "\u0120Annotations": 47939,
  "ACTED": 38542,
  "\u0120interceptions": 28891,
  "\u0120halted": 27771,
  "highest": 35323,
  "\u0120js": 44804,
  "\u0120championships": 27459,
  "\u0120Legend": 9883,
  "\u0120rarity": 32823,
  "\u0120pun": 4000,
  "\u0120weeping": 45705,
  "\u0120Pub": 8525,
  "rail": 30224,
  "maps": 31803,
  "\u0120joy": 8716,
  "ortunate": 13651,
  "\u0120Shan": 14866,
  "\u0120\"\\": 37082,
  "\u0120sand": 6450,
  "\u0120Hungary": 19562,
  "\u0120edged": 45871,
  "265": 22980,
  "\u0120Lawn": 46007,
  "111": 16243,
  "\u0120KE": 47134,
  "\u0120pie": 2508,
  "\u0120sl": 1017,
  "\u0120obese": 20779,
  "\u0120overflow": 30343,
  "\u0120Protect": 21916,
  "Rich": 14868,
  "\u0120Dis": 3167,
  "\u0120exhilar": 47029,
  "S": 50,
  "\u0120cha": 17792,
  "\u0120stroke": 14000,
  "ww": 1383,
  "\u0120mortality": 12430,
  "\u0120Sard": 46997,
  "ASHINGTON": 19436,
  "edly": 49288,
  "etitive": 17295,
  "\u00e3\u0125": 1209,
  "broad": 36654,
  "\u0120appell": 24781,
  "oreal": 39396,
  "\u0120EPA": 10193,
  "\u0120ninja": 37049,
  "\u0120Trophy": 25640,
  "graded": 21791,
  "pex": 24900,
  "\u0120escaped": 13537,
  "\u0120prick": 41409,
  "CG": 39816,
  "LET": 28882,
  "\u0120nozzle": 46031,
  "Quest": 12166,
  "\u0120mug": 25152,
  "\u0120baggage": 30466,
  "\u0120threads": 14390,
  "mans": 16221,
  "\u0120Oscar": 15694,
  "Fourth": 45530,
  "fixed": 34021,
  "\u0120protester": 34678,
  "\u00c3\u00afve": 38776,
  "\u0120Fellow": 29764,
  "ocy": 13733,
  "\u0120Moroc": 23711,
  "\u0120Poland": 12873,
  "\u0120tens": 11192,
  "\u0120Clarkson": 40524,
  "\u0120Got": 11853,
  "313": 25838,
  "shire": 10932,
  "\u0120Ichigo": 44547,
  "\u0120Particip": 13928,
  "\u0120consec": 42938,
  "\u0120until": 1566,
  "\u0120Gods": 15391,
  "\u0120Lim": 7576,
  "\u0120undertaken": 21846,
  "ENN": 34571,
  "\u0120Apr": 2758,
  "\u0120Winds": 22608,
  "\u0120Broadcast": 44244,
  "\u0120deduct": 18777,
  "\u0120phenotype": 47174,
  "\u0120popcorn": 38914,
  "\u0120possibility": 5885,
  "\u0120versatile": 21362,
  "packs": 32377,
  "\u0120Blaze": 33965,
  "\u0120Leone": 30399,
  "idents": 3231,
  "\u0120laptops": 26635,
  "\u0120behaviors": 14301,
  "wagen": 29160,
  "cham": 49869,
  "weeney": 41681,
  "\u0120Ninth": 32547,
  "STAR": 46678,
  "\u0120heritage": 15012,
  "\u0120gh": 24997,
  "illation": 40903,
  "entials": 14817,
  "Wind": 8731,
  "Animation": 39520,
  "iness": 1272,
  "ishable": 31785,
  "\u0120Des": 2935,
  "\u0120Timothy": 22283,
  "\u0120armored": 24856,
  "\u0120blindness": 37673,
  "\u0120celebrate": 10648,
  "\u0120fined": 22643,
  "ange": 858,
  "irtual": 22341,
  "utsch": 40768,
  "\u0120Petersburg": 27051,
  "Nit": 33772,
  "enance": 36368,
  "\u01201951": 27937,
  "respected": 48268,
  "\u0120contribution": 10156,
  "\u0120ecstatic": 45782,
  "\u0120orbiting": 40462,
  "\u0120predictions": 16277,
  "\u0120passport": 17981,
  "\u0120swast": 47923,
  "\u0120teenagers": 17366,
  "\u0120unicorn": 44986,
  "\u0120withd": 6681,
  "\u0120Indigenous": 24033,
  "\u0120conco": 33463,
  "\u0120illumination": 40951,
  "\u0120supremacy": 25888,
  "acer": 11736,
  "\u0120riding": 10311,
  "iminary": 38429,
  "\u0120bung": 43974,
  "\u0120lia": 35388,
  "\u0120punishment": 9837,
  "oming": 3383,
  "\u0120asserts": 29348,
  "\u0120imagin": 25007,
  "cean": 5829,
  "Electric": 44132,
  "sey": 4397,
  "parser": 48610,
  "\u0120indifference": 34324,
  "\u0120eighth": 16974,
  "\u0120membership": 9931,
  "\u0120mind": 2000,
  "raised": 49309,
  "\u0120Explorer": 19142,
  "\u0120caregivers": 45044,
  "\u0120dys": 13147,
  "pps": 41799,
  "\u0120comp": 552,
  "\u0120knives": 23110,
  "\u0120motives": 21508,
  "\u0120Oy": 39447,
  "\u0120Whitney": 34701,
  "anded": 12249,
  "\u0120onions": 24681,
  "\u0120Levels": 28248,
  "\u0120distribut": 11309,
  "Democratic": 33939,
  "Tags": 36142,
  "wild": 21992,
  "\u0120Rage": 21663,
  "\u0120Dock": 36444,
  "\u0120thought": 1807,
  "...]": 22345,
  "\u0120meaningful": 11570,
  "\u0120Nobel": 20715,
  "\u0120figur": 31474,
  "mopolitan": 44331,
  "ont": 756,
  "bie": 12590,
  "\u0120fought": 8350,
  "\u0120harm": 4419,
  "\u0120Census": 20962,
  "\u0120nutritious": 48102,
  "\u0120pool": 5933,
  "olor": 45621,
  "\u0120NRA": 23962,
  "\u0120Pyrrha": 34386,
  "aina": 42183,
  "\u0120Childhood": 40992,
  "collection": 43681,
  "\u0120Beard": 41698,
  "\u0120Condition": 24295,
  "\u0120np": 45941,
  "Introdu": 15005,
  "\u0120Salad": 42706,
  "\u0120Ember": 33216,
  "\u0120verb": 15942,
  "aneers": 33547,
  "docs": 31628,
  "olutions": 14191,
  "ogue": 5119,
  "\u00c2\u0142\u00c2\u0142\u00c2\u0142\u00c2\u0142\u00c2\u0142\u00c2\u0142\u00c2\u0142\u00c2\u0142": 17811,
  "\u0120Alexandria": 27872,
  "\u0120rough": 5210,
  "pal": 18596,
  "\u0120VIDEO": 35507,
  "\u0120Low": 7754,
  "\u0120membranes": 43447,
  "\u0120Negative": 36183,
  "\u0120bizarre": 13699,
  "535": 44465,
  "\u00c2\u0142\u00c2\u0142\u00c2\u0142\u00c2\u0142": 8828,
  "\u00e9\u0138": 38461,
  "\u0120developed": 4166,
  "\u0120Plenty": 43257,
  "\u0120grips": 31323,
  "\u0120Hoo": 26859,
  "\u0120steal": 8711,
  "\u0120Bolt": 21764,
  "\u0120bum": 39564,
  "\u0120dise": 3591,
  "\u0120NYT": 47243,
  "\u0120gatherings": 37134,
  "\u00c3\u00a1s": 40138,
  "think": 14925,
  "IER": 38311,
  "79": 3720,
  "\u0120Holland": 16070,
  "\u0120generals": 26770,
  "\u0120powdered": 41642,
  "\u0120wors": 24476,
  "borough": 17913,
  "secondary": 38238,
  "bey": 23454,
  "\u0120IMAGES": 45325,
  "\u0120Economist": 36619,
  "cig": 22683,
  "hardt": 28375,
  "\u0120YES": 21560,
  "\u0120authorization": 19601,
  "\u0120covari": 44829,
  "\u0120numbers": 3146,
  "\u0120Communications": 14620,
  "\u0120slur": 40066,
  "713": 50055,
  "ulator": 8927,
  "psons": 31410,
  "VE": 6089,
  "\u0120handy": 15728,
  "><": 6927,
  "\u0120Fare": 35205,
  "\u0120Download": 10472,
  "bern": 33900,
  "\u0120weapon": 4282,
  "\u0120+#": 43053,
  "Hello": 15496,
  "\u0120brawl": 42599,
  "\u0120objectives": 15221,
  "mented": 12061,
  "\u0120nort": 17605,
  "perature": 21069,
  "pack": 8002,
  "\u0120finishes": 20271,
  "\u0120overflowing": 43347,
  "\u0120Income": 19003,
  "tec": 36281,
  "\u0120banking": 11754,
  "\u0120Enlight": 30564,
  "uded": 19289,
  "changed": 40985,
  "\u0120Rodgers": 19947,
  "\u0120Opt": 13123,
  "\u0120finalists": 43736,
  "\u0120technology": 3037,
  "\u0120tub": 12202,
  "athi": 44202,
  "\u0120Amsterdam": 24377,
  "\u0120commod": 13088,
  "\u0120nest": 16343,
  "Buy": 14518,
  "577": 49447,
  "@#": 41573,
  "\u0120basal": 41202,
  "\u0120constructed": 12006,
  "\u0120directed": 7924,
  "\u0120inclined": 19514,
  "\u0120Castro": 21193,
  "\u0120kingdoms": 41901,
  "oried": 42058,
  "Improved": 35453,
  "las": 21921,
  "termination": 41382,
  "ulz": 37314,
  "\u0120obst": 9710,
  "\u0120purch": 3040,
  "culture": 25584,
  "\u0120eld": 18441,
  "\u0120Lor": 26068,
  "\u0120Millennium": 26139,
  "\u0120Becker": 40765,
  "kef": 30728,
  "\u0120Austin": 9533,
  "\u0120cameras": 9073,
  "\u0120fiasco": 49023,
  "Lat": 24220,
  "owned": 11990,
  "\u00c3\u00a3": 26102,
  "\u0120Doug": 15115,
  "uke": 4649,
  "\u00e2\u0138\u0133\u00e2\u0138\u0133": 27534,
  "\u0120365": 21268,
  "ription": 2918,
  "models": 27530,
  "Portland": 45330,
  "\u0120Cul": 32559,
  "\u0120SX": 44205,
  "\u0120Insp": 25300,
  "ISE": 24352,
  "\u0120Subscribe": 19808,
  "enza": 23674,
  "\u0120Maver": 28870,
  "\u0120Surely": 28417,
  "\u0120boredom": 43515,
  "\u0120calorie": 28740,
  "\u0120Contrast": 47011,
  "\u0120condoms": 33298,
  "solete": 23869,
  "\u0120blocking": 12013,
  "ishly": 29735,
  "\u0120equation": 16022,
  "Di": 18683,
  "\u00d9\u0128": 23338,
  "\u0120Azure": 22134,
  "ount": 608,
  "\u0120crown": 12389,
  "\u0120dime": 37062,
  "\u0120bee": 20697,
  "\u0120downright": 31464,
  "\u0120inserts": 42220,
  "\u0120between": 1022,
  "\u0120internet": 5230,
  "\u0120Mehran": 42558,
  "Chain": 35491,
  "\u0120notion": 9495,
  "\u0120spur": 26724,
  "\u0120tiger": 26241,
  "\u0120wasteful": 45393,
  "Ni": 34153,
  "\u0120hardness": 49604,
  "\u0120Sheriff": 12874,
  "\u0120sweating": 38912,
  "\u0120Civil": 7511,
  "\u0120Mitchell": 14526,
  "\u0120Shepherd": 30890,
  "\u0120Advisory": 23943,
  "\u0120inactive": 28621,
  "\u0120designs": 9824,
  "\u0120fostering": 44209,
  "\u0120recipe": 8364,
  "ati": 7246,
  "\u0120Huang": 31663,
  "\u0120III": 6711,
  "\u0120connects": 20417,
  "\u0120square": 6616,
  "\u0120unse": 38478,
  "kas": 42749,
  "\u0120configurations": 25412,
  "\u0120unmatched": 48621,
  "\u0120upwards": 21032,
  "\u0120--------------------------------": 20368,
  "clair": 27659,
  "\u0120silver": 8465,
  "\u0120sacred": 13626,
  "\u0120Station": 9327,
  "\u0120buses": 16893,
  "ucl": 36616,
  "gang": 28284,
  "\u0120PCs": 21869,
  "\u0120bin": 9874,
  "How": 2437,
  "\u0120Rob": 3851,
  "\u0120allele": 45907,
  "\u0120avoiding": 14928,
  "\u0120eagerly": 30130,
  "\u0120imminent": 21161,
  "\u0120noted": 4367,
  "\u0120Ads": 47442,
  "isco": 4861,
  "rem": 2787,
  "\u0120Proceedings": 30641,
  "\u0120[/": 46581,
  "\u0120embold": 42221,
  "sample": 39873,
  "\u0120Rochester": 27008,
  "\u0120bothers": 46293,
  "\u0120epidemic": 18195,
  "esi": 46551,
  "\u0120flooded": 21050,
  "\u0120sacrifices": 24601,
  "\u0120park": 3952,
  "testers": 27205,
  "\u0120sniper": 26160,
  "\u0120typew": 49938,
  "abouts": 27880,
  "\u0120employ": 1873,
  "\u0120Qu": 2264,
  "\u0120reform": 4975,
  "ronics": 20844,
  "utes": 1769,
  "be": 1350,
  "nw": 47516,
  "\u0120Gard": 12790,
  "\u0120firmware": 18779,
  "parency": 11944,
  "\u0120pulls": 16194,
  "\u0120Details": 14890,
  "\u0120wipes": 46142,
  "\u0120dup": 32597,
  "\u0120Origin": 19349,
  "\u0120seamless": 32354,
  "\u0120coping": 35326,
  "\u0120sentencing": 20565,
  "ergic": 19793,
  "\u0120Haw": 6091,
  "Filter": 22417,
  "On": 2202,
  "ultan": 30454,
  "\u0120Kab": 28793,
  "\u0120obscurity": 48326,
  "\u0120Raphael": 37464,
  "\u0120Variety": 39143,
  "\u0120staple": 25629,
  "ry": 563,
  "\u0120visualization": 32704,
  "\u0120windshield": 38866,
  "\u0120spectators": 31704,
  "xd": 24954,
  "\u0120areas": 3006,
  "Co": 7222,
  "\u0120complete": 1844,
  "\u0120MO": 13070,
  "\u0120flex": 7059,
  "ativity": 22055,
  "zos": 37925,
  "\u0120exploits": 27062,
  "\u0120sponsors": 18073,
  "different": 39799,
  "\u01202016": 1584,
  "\u0120POP": 37586,
  "\u0120draconian": 33483,
  "usual": 37850,
  "801": 41531,
  "\u0120Fallon": 36503,
  "farious": 41504,
  "push": 14689,
  "rou": 472,
  "writing": 16502,
  "\u0120Metatron": 38894,
  "\u0120Gors": 34926,
  "\u0120Damage": 8995,
  "livious": 35260,
  "\u0120ali": 34965,
  "\u0120bona": 41602,
  "\u0120demon": 3222,
  "\u0120disreg": 18795,
  "\u0120hamm": 25755,
  "\u0120roomm": 26255,
  "\u0120229": 31064,
  "\u0120sidewalks": 38282,
  "\u0120alum": 46518,
  "\u0120reassured": 48171,
  "\u0120tennis": 20790,
  "uther": 12866,
  "\u0120parser": 30751,
  "\u0120trapped": 13640,
  "Neither": 27270,
  "def": 4299,
  "\u0120cab": 16212,
  "aminer": 32086,
  "category": 22872,
  "big": 14261,
  "Shadow": 27447,
  "\u0120Capacity": 29765,
  "bars": 34046,
  "\u0120Butcher": 39680,
  "\u0120suff": 3027,
  "\u0120Live": 7547,
  "\u0120Settings": 16163,
  "busters": 30181,
  "zie": 49746,
  "\u0120116": 18693,
  "\u0120Care": 7276,
  "\u0120dub": 10873,
  "\u00e2\u0138\u012a\u00e2\u0138\u012a": 9968,
  "\u0120loaf": 40134,
  "\u0120Journals": 48608,
  "\u0120VIEW": 49880,
  "\u0120ledger": 37208,
  "\u0120positives": 38548,
  "bal": 6893,
  "\u0120northeastern": 38131,
  "\u00e3\u0125\u00bc\u00e3\u0125\u00b3": 31708,
  "\u0120density": 12109,
  "\u0120startled": 36249,
  "Cell": 28780,
  "\u0120CBO": 38260,
  "\u0120collapsed": 14707,
  "\u0120familiarity": 33065,
  "?????": 19622,
  "\u0120Divine": 13009,
  "\u0120LAT": 42355,
  "ras": 8847,
  "\u0120Manz": 37734,
  "\u0120[\u00e2\u0122\u00a6]": 23834,
  "\u0120claimant": 50018,
  "\u0120ded": 4648,
  "\u0120irre": 11331,
  "\u0120legalized": 33071,
  "Or": 5574,
  "\u0120Schultz": 26530,
  "\u0120mana": 13149,
  "clad": 29853,
  "FL": 3697,
  "idates": 37051,
  "\u0120Dian": 19326,
  "iciency": 19777,
  "\u0120es": 1658,
  "\u0120Updated": 19433,
  "\u0120sightings": 36242,
  "oso": 28213,
  "\u0120transitioning": 37005,
  "%]": 39850,
  "ive": 425,
  "\u0120CNBC": 34881,
  "\u0120victims": 4970,
  "\u0120picked": 6497,
  "\u0120retrospective": 41432,
  "\u0120Cover": 17546,
  "\u0120Tot": 20323,
  "\u0120storylines": 44880,
  "\u0120manipulative": 47859,
  "\u0120Demand": 34479,
  "\u0120reasonable": 6397,
  "\u0120URI": 43975,
  "\u0120Madonna": 42345,
  "\u0120prosperity": 19519,
  "TRUMP": 42473,
  "\u0120Cabin": 16804,
  "\u0120HOR": 48345,
  "task": 35943,
  "\u0120revol": 35891,
  "\u0120Sakura": 20574,
  "\u0120neuron": 43164,
  "emo": 41903,
  "\u0120Birds": 27124,
  "\u0120legally": 11119,
  "avier": 19492,
  "\u0120ACPI": 33465,
  "\u0120Deals": 38299,
  "\u0120Likewise": 22660,
  "\u0120skeptical": 17988,
  "1975": 38449,
  "\u0120Institution": 29426,
  "\u0120interacts": 44020,
  "\u0120beloved": 14142,
  "\u0120Administ": 6813,
  "\u0120treaty": 15775,
  "\u0120Panda": 41112,
  "Courtesy": 31825,
  "NR": 24723,
  "\u0120disg": 13757,
  "restrial": 23522,
  "\u0120Mane": 42736,
  "\u0120Zig": 24992,
  "\u0120\u00e3\u0124\u00b5": 38390,
  "\u0120Connor": 27599,
  "**": 1174,
  "KR": 30758,
  "growth": 27922,
  "423": 43356,
  "\u0120below": 2174,
  "\u0120navy": 23956,
  "\u0120bullish": 50079,
  "\u0120graded": 44545,
  "blind": 27461,
  "\u0120stated": 5081,
  "94": 5824,
  "\u0120auditor": 30625,
  "Ter": 15156,
  "\u0120soph": 9810,
  "\u0120firearm": 13988,
  "ME": 11682,
  "Of": 5189,
  "ology": 1435,
  "\u0120Sweet": 15335,
  "\u0120kinetic": 37892,
  "\u0120Obj": 38764,
  "\u0120Meditation": 41616,
  "\u0120Pen": 7507,
  "\u0120bestowed": 40293,
  "PORT": 15490,
  "\u0120endot": 46710,
  "\u0120gaping": 46529,
  ",.": 38508,
  "\u0120heart": 2612,
  "\u0120chats": 40815,
  "\u0120Crack": 46180,
  "\u0120lift": 10303,
  "\u0120empires": 44982,
  "verett": 33395,
  "\u0120screwed": 27527,
  "\u0120spare": 13952,
  "astered": 14054,
  "\u0120Sil": 4243,
  "\u0120Patients": 28021,
  "329": 37967,
  "ooth": 5226,
  "sale": 21378,
  "\u0120ample": 23933,
  "\u0120gon": 35140,
  "\u0120trapping": 43338,
  "ascal": 27747,
  "\u0120brave": 14802,
  "\u0120meals": 13840,
  "\u0120ult": 3789,
  "\u0120week": 1285,
  "\u0120casually": 27793,
  "\u0120ADHD": 22822,
  "ombo": 47265,
  "\u0120broccoli": 44653,
  "\u0120heed": 32420,
  "\u0120mammalian": 46177,
  "uesday": 3322,
  "eled": 18449,
  "upper": 45828,
  "\u0120chirop": 47544,
  "\u0120iso": 47279,
  "\u0120Refresh": 22539,
  "\u0120319": 40385,
  "\u0120Slate": 30621,
  "\u0120HR": 15172,
  "\u0120augment": 35016,
  "\u0120mound": 31446,
  "Military": 37837,
  "lected": 12609,
  "ILD": 26761,
  "\u0120twitter": 17044,
  "\u0120student": 3710,
  "\u0120wondered": 14028,
  "\u0120Mer": 4638,
  ".,\"": 44388,
  "\u0120THEIR": 47278,
  "\u0120civilians": 10380,
  "\u0120lear": 22454,
  "\u0120lord": 15876,
  "\u0120373": 47946,
  "\u0120ens": 3140,
  "\u0120partisan": 19666,
  "Blade": 47520,
  "ergy": 26079,
  "\u0120\u00e8\u00a3\u0131\u00e8": 34504,
  "\u0120Ak": 9084,
  "Students": 28239,
  "\u0120franch": 7693,
  "\u0120Cow": 10417,
  "\u0120confirmation": 12641,
  "\u0120Cooke": 46247,
  "\u0120Andersen": 42356,
  "\u0120Ice": 6663,
  "\u0120===": 24844,
  "\u0120diabetic": 44016,
  "\u0120liberating": 48291,
  "\u0120acutely": 49317,
  "\u0120stored": 8574,
  "\u0120TOD": 16926,
  "ivating": 39438,
  "zag": 50183,
  "\u00e6\u00b3": 37345,
  "\u0120AES": 34329,
  "\u0120Lists": 44968,
  "ipple": 18793,
  "\u0120Ter": 3813,
  "\u0120capsule": 27855,
  "\u0120photographs": 12566,
  "\u0120Sting": 35785,
  "rey": 4364,
  "Notable": 45533,
  "288": 25270,
  "\u0120fermented": 44543,
  "\u0120sovereign": 18901,
  "\u0120travelling": 16574,
  "\u0120MODULE": 33893,
  "\u0120AUD": 41260,
  "\u0120suppressed": 25822,
  "ANGE": 27746,
  "\u0120records": 4406,
  "268": 25022,
  "\u0120expressive": 38084,
  "W": 54,
  "\u0120Hosp": 39946,
  "\u0120charism": 25348,
  "905": 44928,
  "aping": 9269,
  "aturation": 36921,
  "GU": 38022,
  "uring": 870,
  "\u0120LSD": 27483,
  "\u012011": 1367,
  "olated": 50027,
  "\u0120Scarlet": 26620,
  "\u0120Klein": 22864,
  "\u0120bears": 13062,
  "\u0120computed": 29231,
  "Zip": 41729,
  "\u0120cook": 4255,
  "Higher": 48708,
  "atories": 19854,
  "ivic": 16482,
  "\u0120Inner": 24877,
  "\u0120Treat": 11217,
  "\u0120cancell": 22040,
  "\u0120endurance": 22965,
  "\u00e3\u0125\u0130": 25053,
  "\u0120Exam": 35909,
  "\u0120Marine": 11000,
  "\u0120fort": 6285,
  "\u0120freed": 13459,
  "\u0120Gillespie": 45078,
  "Nat": 47849,
  "Music": 22648,
  "citizens": 46801,
  "\u0120Widow": 39061,
  "%:": 48529,
  "\u0120Challenger": 39221,
  "\u0120airliner": 45110,
  "\u0120deserted": 36043,
  "\u0120fluct": 19180,
  "\u0120insect": 12833,
  "\u0120island": 7022,
  "\u0120Liv": 32020,
  "\u0120EXP": 25703,
  "\u0120committed": 5364,
  "\u0120caloric": 48413,
  "81": 6659,
  "\u0120XY": 41420,
  "\u0120offerings": 18369,
  "\u0120Why": 4162,
  "\u0120orn": 25322,
  "\u0120histor": 3752,
  "\u0120environments": 12493,
  "\u0120optimistic": 16915,
  "requisite": 27614,
  "\u0120loc": 1179,
  ">>\\": 34516,
  "\u0120ke": 885,
  "\u0120Vim": 36645,
  "\u0120convince": 11508,
  "\u0120tries": 8404,
  "565": 47372,
  "built": 18780,
  "\u0120Benjamin": 14533,
  "\u0120Bloom": 11891,
  "\u0120hers": 25144,
  "\u0120in": 287,
  "\u0120Principal": 32641,
  "\u0120shy": 15800,
  "\u0120outbreaks": 35198,
  "\u0120stormed": 33997,
  "\u0120Significant": 49631,
  "FS": 10652,
  "POR": 44680,
  "\u0120subscript": 32891,
  "LE": 2538,
  "abases": 18826,
  "\u0120Tsu": 23459,
  "\u0120est": 1556,
  "\u0120Santos": 28458,
  "ime": 524,
  "\u0120Certification": 40609,
  "\u0120wield": 15445,
  "\u0120nature": 3450,
  "\u0120Glass": 12158,
  "\u0120Jericho": 47782,
  "\u0120Worlds": 19946,
  "\u0120DET": 38267,
  "\u0120deg": 3396,
  "Considering": 40475,
  "ortun": 1922,
  "iors": 12706,
  "ressed": 2790,
  "usalem": 10555,
  "\u012087": 10083,
  "\u0120HTTP": 14626,
  "\u0120Organizations": 41846,
  "\u0120Ref": 6524,
  "atically": 4142,
  "setting": 33990,
  "will": 10594,
  "\u0120disob": 30163,
  "\u0120Glou": 49383,
  "\u0120gearing": 40592,
  "\u0120ground": 2323,
  "anks": 2283,
  "enta": 29188,
  "reflect": 35051,
  "\u0120MIA": 44903,
  "\u0120Kamp": 45327,
  "\u0120attrition": 48981,
  "\u0120illust": 6406,
  "oom": 4207,
  "\u0120awful": 12659,
  "\u0120annex": 22768,
  "\u0120fug": 31497,
  "\u0120hum": 1311,
  "ctions": 2733,
  "\u0120(),": 29994,
  "\u0120Independent": 13362,
  "\u0120flexibility": 13688,
  "ML": 5805,
  "\u0120heartbeat": 36051,
  "Yo": 38101,
  "Station": 12367,
  "\u00d7\u0137": 27072,
  "\u0120Goo": 43456,
  "\u0120cinnamon": 29181,
  "\u0120capturing": 21430,
  "\u0120jams": 44147,
  "\u0120ongoing": 7044,
  "ials": 8231,
  "Screen": 23901,
  "\u0120biases": 29275,
  "\u0120Rew": 16140,
  "\u0120favourable": 37742,
  "Ms": 10128,
  "clude": 9152,
  "\u0120press": 1803,
  "osition": 3507,
  "\u0120probabilities": 39522,
  "\u0120drain": 14782,
  "\u0120booming": 32017,
  "\u0120Geoff": 24688,
  "\u0120deletion": 39948,
  "\u0120adul": 19046,
  "Walker": 39950,
  "\u0120abnorm": 42364,
  "\u0120HOUSE": 46586,
  "rocket": 30431,
  "\u0120centuries": 10675,
  "atis": 37749,
  "\u0120cis": 33325,
  "\u0120et": 2123,
  "kan": 27541,
  "\u0120imperial": 14312,
  "\u0120compound": 13061,
  "\u0120inward": 29879,
  "\u0120mut": 4517,
  "\u0120Ellie": 44801,
  "\u0120pointer": 17562,
  "\u0120selects": 40573,
  "\u0120stationary": 31607,
  "\u0120immersed": 37970,
  "Rec": 6690,
  "\u0120brute": 33908,
  "\u0120seemed": 3947,
  "aft": 14940,
  "criminal": 45955,
  "\u0120Dealer": 44480,
  "\u0120gadgets": 35281,
  "\u0120Electronic": 19508,
  "\u0120sewing": 35356,
  "());": 35430,
  "yers": 21200,
  "\u0120Cary": 47474,
  "blogspot": 35217,
  "\u0120Qatar": 18286,
  "\u0120cosmetic": 27284,
  "\u0120Life": 5155,
  "\u0120foreigner": 44897,
  "ania": 5411,
  "\u0120rankings": 16905,
  "\u0120associ": 2570,
  "\u0120Machines": 31182,
  "\u0120news": 1705,
  "\u0120satisfaction": 14676,
  "\u0120ii": 21065,
  "\u0120Beau": 32831,
  "PsyNetMessage": 28666,
  "\u0120woods": 16479,
  "\u0120author": 1772,
  "*)": 28104,
  "acle": 6008,
  "se": 325,
  "\u0120behind": 2157,
  "\u0120terr": 8812,
  "\u0120exceedingly": 32436,
  "iry": 9045,
  "Options": 29046,
  "erick": 41556,
  "\u0120meter": 16430,
  "\u0120Janet": 28111,
  "\u0120sentient": 36834,
  "\u0120Fee": 28522,
  "aughed": 13726,
  "\u0120evidence": 2370,
  "HA": 7801,
  "ogeneity": 37477,
  "\u0120\u00cf\u0126": 46651,
  "oning": 12484,
  "\u0120New": 968,
  "\u0120Imran": 39998,
  "\u0120Mat": 6550,
  "arily": 3093,
  "\u0120cardiac": 26077,
  "\u0120marriages": 20102,
  "\u0120making": 1642,
  "\u0120Eur": 36554,
  "\u0120Inform": 45255,
  "\u0120feared": 15240,
  "\u0120phylogen": 43422,
  "\u0120intolerance": 31545,
  "laugh": 44944,
  "stroke": 30757,
  "anz": 35410,
  "\u0120shock": 6380,
  "\u0120{}": 23884,
  "\u0120443": 40384,
  "\u0120GAME": 30517,
  "\u0120TER": 28994,
  "\u0120CrossRef": 42750,
  "\u0120boiled": 29939,
  "\u0120lest": 27380,
  "\u0120fixation": 48785,
  "\u0120rope": 17182,
  "\u0120creating": 4441,
  "\u0120dos": 23430,
  "Snake": 49795,
  "\u0120mice": 10693,
  "ists": 1023,
  "\u0120Gentle": 25066,
  "\u0120Higher": 16038,
  "Come": 16773,
  "hips": 5748,
  "\u0120highways": 27239,
  "Lo": 27654,
  "tions": 45240,
  "aser": 6005,
  "\u0120wherein": 22881,
  "\u0120deserve": 10925,
  "\u0120LD": 27178,
  "\u0120eSports": 32717,
  "\u0120Majority": 22171,
  "\u0120Participants": 26122,
  "\u0120arming": 44306,
  "iel": 8207,
  "\u0120Unknown": 16185,
  "\u0120Illustrated": 36000,
  "\u0120Summon": 19515,
  "\u0120summit": 14237,
  "\u0120Vortex": 49790,
  "idate": 20540,
  "sort": 30619,
  "zona": 7551,
  "']": 20520,
  "\u0120Unlock": 39626,
  "\u0120Zur": 35821,
  "olesc": 16850,
  "sung": 9854,
  "\u0120homophobia": 42583,
  "\u0120commanding": 25771,
  "\u0120Pentagon": 12651,
  "2016": 5304,
  "\u0120Buch": 23670,
  "\u0120widely": 6768,
  "\u0120mp": 29034,
  "UF": 36820,
  "only": 8807,
  "Street": 34356,
  "\u0120Hes": 44773,
  "\u0120Myth": 18900,
  "\u0120Stan": 7299,
  "Land": 22342,
  "Karl": 46063,
  "\u0120Indonesia": 16256,
  "\u0120shalt": 36258,
  "\u0120contributor": 18920,
  "\u0120striking": 8871,
  "hod": 2065,
  "Maria": 46827,
  "\u0120problem": 1917,
  "ibl": 10506,
  "\u0120NOTICE": 28536,
  "SPA": 50087,
  "visors": 27681,
  "Please": 5492,
  "\u0120Marg": 11899,
  "\u00e3\u0125\u00a1": 26998,
  "JSON": 40386,
  "\u0120Plat": 32715,
  "\u0120defend": 4404,
  "\u0120invests": 49862,
  "\u0120substituted": 31601,
  "\u0120dun": 12574,
  "\u0120theatre": 21421,
  "\u0120unrelated": 19938,
  "azor": 17725,
  "hetically": 31786,
  "\u0120KY": 33668,
  "\u0120Moral": 39020,
  "\u0120Spons": 18972,
  "Add": 4550,
  "JP": 12889,
  "\u0120Bur": 5481,
  "\u0120Astro": 35167,
  "\u0120Garcia": 18555,
  "\u0120Queens": 14045,
  "\u0120bought": 5839,
  "\u0120JACK": 45586,
  "\u0120abusing": 29170,
  "\u0120developer": 8517,
  "\u0120fatal": 10800,
  "\u0120Clair": 48195,
  "\u0120EB": 43374,
  "\u0120kingdom": 13239,
  "\u0120Talks": 47595,
  "rupulous": 46272,
  "LAN": 25697,
  "\u0120hairy": 43873,
  "\u0120Vance": 40154,
  "\u0120engaging": 11932,
  "\u0120spanning": 32557,
  "\u0120blasphemy": 41933,
  "\u0120profiling": 31582,
  "oping": 15816,
  "\u0120sweater": 35685,
  "atem": 23900,
  "\u0120Epidem": 38437,
  "\u0120ur": 2956,
  "\u0120Tribe": 27804,
  "\u0120Wee": 48643,
  "\u00d8\u00b1": 26897,
  "\u0120relative": 3585,
  "\u0120Warp": 31382,
  "leader": 27940,
  "\u0120proofs": 39197,
  "\u0120confisc": 22735,
  "\u0120biscuits": 50128,
  "2015": 4626,
  "Mesh": 37031,
  "aney": 22297,
  "\u0120enjoyable": 20050,
  "\u0120attractions": 29156,
  "\u0120devotion": 25808,
  "\u0120monk": 27266,
  "\u0120trans": 1007,
  "\u0120GPL": 38644,
  "enic": 35866,
  "\u0120family": 1641,
  "\u0120Todd": 14377,
  "Email": 15333,
  "asser": 24929,
  "\u01201440": 49557,
  "\u0120inexperienced": 38003,
  "tv": 14981,
  "\u0120ones": 3392,
  "\u0120playable": 22469,
  "\u0120sauce": 10746,
  "\u0120KP": 45814,
  "\u0120situational": 45290,
  "gmail": 14816,
  "\u0120Dur": 11164,
  "\u0120combo": 14831,
  "\u0120Kernel": 32169,
  "\u0120dominance": 18648,
  "secure": 22390,
  "abad": 17325,
  "..................": 49129,
  "\u0120Sadly": 27213,
  "PDATE": 14341,
  "inda": 22261,
  "\u0120BOOK": 39633,
  "\u0120Daesh": 40935,
  "Pic": 39507,
  "\u0120Baby": 14801,
  "\u0120Klux": 45092,
  "\u0120Stanley": 14167,
  "URA": 45570,
  "\u0120EL": 17852,
  "\u0120activist": 11276,
  "\u0120Pri": 4389,
  "ENTS": 15365,
  "\u0120Answers": 42612,
  "\u0120idol": 21580,
  "ilo": 18526,
  "\u0120Odd": 20664,
  "fs": 9501,
  "ofer": 30288,
  "\u0120presiding": 44851,
  "\u0120Kass": 40511,
  "eful": 13839,
  "\u0120Helen": 22695,
  "\u0120Naj": 37135,
  "\u0120Runtime": 43160,
  "\u0120analogue": 45304,
  "\u0120fam": 1145,
  "\u0120animated": 15108,
  "\u0120lo": 2376,
  "\u0120justify": 12051,
  "olithic": 30764,
  "ovsky": 29716,
  "\u0120musician": 21623,
  "\u0120Hist": 5590,
  "\u00e3\u0124\u012c": 28255,
  "\u0120Interestingly": 25044,
  "\u0120Thou": 34048,
  "\u0120disregard": 25070,
  "Money": 26788,
  "ainted": 14215,
  "lake": 27180,
  "bags": 34005,
  "\u0120automobiles": 44820,
  "Den": 21306,
  "\u0120lateral": 25653,
  "\u0120MU": 25108,
  "\u0120retaliation": 24671,
  "\u0120slipped": 18859,
  "\u0120tidal": 40738,
  "\u0120undefeated": 41445,
  "Baby": 36534,
  "\u0120Chem": 12870,
  "\u0120\u00e5": 10263,
  "ystem": 6781,
  "Exec": 23002,
  "\u0120QC": 36070,
  "\u0120collide": 46592,
  "\u0120111": 13374,
  "\u0120screenshot": 22032,
  "bending": 49667,
  "\u0120exaggerated": 25291,
  "?)": 10091,
  "rek": 37818,
  "ially": 1927,
  "0000000": 24598,
  "264": 18897,
  "\u0120Penet": 46975,
  "\u0120bruising": 45468,
  "\u0120derivative": 27255,
  "\u0120boosts": 31822,
  "\u0120tv": 31557,
  "\u0120shooter": 14273,
  "\u0120Wikimedia": 44877,
  "NEWS": 49597,
  "\u0120prim": 2684,
  "\u0120Danielle": 39808,
  "\u0120Buddy": 36896,
  "\u0120Bever": 22185,
  "Trust": 33814,
  "veyard": 21563,
  "\u0120objection": 19630,
  "\u0120strive": 22076,
  "\u0120ul": 14856,
  "\u0120newspapers": 14741,
  "\u0120Jer": 4230,
  "forward": 11813,
  "\u0120Rating": 12028,
  "stals": 41076,
  "zees": 43727,
  "\u0120redes": 19965,
  ")-": 13219,
  "\u0120NH": 24451,
  "\u0120Betsy": 45775,
  "\u0120Ukrainians": 49114,
  "\u0120clubs": 9784,
  "\u0120Z": 1168,
  "Card": 16962,
  "\u0120VIDE": 45748,
  "\u0120comparing": 14176,
  "Israeli": 29818,
  "ali": 7344,
  "hard": 10424,
  "\u0120DNA": 7446,
  "\u0120Larson": 42630,
  "rift": 35357,
  "\u0120Calgary": 17842,
  "!)": 8133,
  "\u0120Her": 2332,
  "aryn": 38621,
  "\u0120Rust": 17103,
  "\u0120outper": 33597,
  "\u0120reacted": 22798,
  "\u0120regulation": 9001,
  "asso": 28372,
  "\u01200004": 38326,
  "\u0120Thin": 40487,
  "\u0120waive": 40307,
  "\u0120want": 765,
  "\u0120Corporate": 26040,
  "\u0120Commons": 13815,
  "MSN": 30295,
  "ersive": 24469,
  "idium": 43523,
  "\u00e2\u0137": 22880,
  "\u0120Madness": 24452,
  "\"?": 13984,
  "\u0120appre": 5208,
  "\u0120Asian": 7740,
  "VD": 8898,
  "\u0120Palmer": 18918,
  "\u0120compulsion": 48672,
  "\u0120fatig": 46291,
  "\u0120hate": 5465,
  "Shipping": 45169,
  "\u0120BCE": 37078,
  "\u0120Effect": 7896,
  "\u0120complimentary": 40701,
  "\u0120recol": 26330,
  "\u0120darts": 47807,
  "\u0120agrees": 14386,
  "ize": 1096,
  "\u0120clues": 20195,
  "\u0120allev": 23863,
  "\u0120sued": 16334,
  "409": 29416,
  "eway": 16172,
  "Techn": 25574,
  "Hung": 39505,
  "ibliography": 45689,
  "\u0120HAM": 48079,
  "\u0120Way": 6378,
  "\u0120unanimously": 28355,
  "\u0120champions": 7827,
  "\u0120Acceler": 29805,
  "OWN": 14165,
  "\u0120deadlines": 36773,
  "Detect": 47504,
  "intendent": 21075,
  "\u0120Tomas": 42884,
  "yrinth": 21324,
  "orum": 19220,
  "\u01201955": 25325,
  "\u0120Jamal": 46520,
  "\u0120hierarchy": 18911,
  "\u0120insane": 13251,
  "\u0120\\": 3467,
  "\u0120Lone": 23405,
  "\u0120raised": 4376,
  "\u0120chooses": 19769,
  "\u0120speculated": 29131,
  "\u0120flowed": 35456,
  "\u0120Wong": 27247,
  "\u0120allies": 7681,
  "\u0120restore": 11169,
  "aver": 8770,
  "achine": 20480,
  "\u0120Muhammad": 15870,
  "oub": 12944,
  "league": 19316,
  "thin": 40871,
  "\u0120Rory": 37178,
  "\u0120and": 290,
  "\u0120trimmed": 40325,
  "Bre": 12679,
  "ALE": 21358,
  "Link": 11280,
  "incent": 42816,
  "pai": 49712,
  "staff": 28120,
  "\u0120filmmaking": 49291,
  "\u0120Gain": 21686,
  "\u0120Birch": 47631,
  "\u0120grasped": 45569,
  "\u0120arbitrary": 14977,
  "\u0120contempt": 18035,
  "\u0120Sydney": 11852,
  "isode": 3282,
  "\u0120crowdfunding": 33851,
  "\u0120drill": 16007,
  "\u0120zeal": 27689,
  "SE": 5188,
  "\u0120Anything": 21035,
  "\u0120food": 2057,
  "\u0120Lite": 27395,
  "essor": 5987,
  "\u0120Request": 19390,
  "](": 16151,
  "October": 18517,
  "igate": 10055,
  "\u0120Cave": 18603,
  "CBC": 29208,
  "\u0120spared": 31348,
  "\u0120submer": 32640,
  "\u0120uncover": 23658,
  "\u0120Compan": 16154,
  "\u0120embro": 27623,
  "\u0120Bermuda": 41410,
  "\u00fa": 182,
  "\u0120cavity": 31643,
  "\u0120Deploy": 34706,
  "\u0120coaster": 42450,
  "vertisements": 11371,
  "ologist": 7451,
  "\u0120Dro": 21045,
  "\u0120coordinate": 20435,
  "\u0120daemon": 33386,
  "\u0120anarch": 14061,
  "\u0120extinguished": 42774,
  "\u0120fixes": 13040,
  "oreAndOnline": 40240,
  "hair": 27108,
  "iam": 1789,
  "\u0120Kristen": 44467,
  "\u0120improves": 19575,
  "channelAvailability": 39757,
  "\u0120brains": 14290,
  "avis": 23401,
  "\u00e3\u0125\u0137\u00e3\u0124\u00a9": 48457,
  "\u0120including": 1390,
  "Court": 36699,
  "tle": 7100,
  "\u0120Journey": 15120,
  "\u0120Nixon": 16642,
  "\\/\\/": 45422,
  "ration": 1358,
  "\u0120Reply": 14883,
  "\u0120intentional": 21391,
  "girl": 15219,
  "Bat": 24541,
  "_.": 44807,
  "\u0120Cure": 36947,
  "\u0120Orn": 49359,
  "\u0120dialect": 23637,
  "\u0120nobility": 41748,
  "full": 12853,
  "Engine": 13798,
  "\u0120Love": 5896,
  "\u0120readings": 24654,
  "\u0120stadiums": 37924,
  "\u0120Tenn": 9034,
  "\u0120Phi": 47256,
  "\u0120appear": 1656,
  "\u0120dissolved": 26306,
  "\u0120glue": 22749,
  "HE": 13909,
  "\u0120=================================================================": 38093,
  "\u0120childish": 39765,
  "\u0120lat": 3042,
  "\u0120Roth": 16131,
  "\u0120Brid": 28320,
  "\u0120Dav": 2544,
  "\u0120toxin": 43026,
  "\u0120148": 22613,
  "\u0120institutional": 15855,
  "\u0120Owner": 23853,
  "\u0120cartoon": 16251,
  "\u0120climbs": 34332,
  "\u0120tele": 5735,
  "tainment": 10738,
  "\u0120dodge": 24885,
  "\u0120framed": 23665,
  "\u0120carbohydrate": 28205,
  "\u0120broad": 3154,
  "\u0120mailbox": 37282,
  "\u0120exped": 13604,
  "\u0120Whole": 23431,
  "\u0120Jury": 48705,
  "089": 49352,
  "\u0120diving": 23186,
  "\u0120Anniversary": 21967,
  "\u0120Crosby": 33098,
  "aer": 25534,
  "udeb": 46092,
  "Effect": 18610,
  "\u0120guidance": 11154,
  "ovych": 40822,
  "\u0120STUD": 49348,
  "\u0120hemorrh": 42203,
  "\u0120Druid": 32685,
  "\u0120knees": 14475,
  "\u0120migration": 13472,
  "\u0120Creature": 33248,
  "\u0120insufficient": 19022,
  "\u0120preced": 8555,
  "inkle": 19894,
  "\u0120Heroic": 34364,
  "\u0120Jul": 5979,
  "astrous": 20168,
  "?'": 8348,
  "\u0120browsing": 23182,
  "shaped": 16760,
  "tml": 20369,
  "\u0120Brendan": 26134,
  "\u0120char": 1149,
  "ength": 3286,
  "forming": 15464,
  "ishment": 17862,
  "\u00c2\u0142": 1849,
  "\u0120BuzzFeed": 26321,
  "\u0120announcements": 24009,
  "\u0120artif": 14077,
  "\u0120soccer": 11783,
  "\u0120semi": 10663,
  "genic": 38516,
  "ura": 5330,
  "\u0120barrage": 33633,
  "DEV": 39345,
  "\u0120sor": 25655,
  "\u0120Jonathan": 11232,
  "\u0120woven": 36932,
  "\u0120debating": 31174,
  "\u0120much": 881,
  "everal": 8438,
  "\u0120summary": 10638,
  "illi": 50173,
  "\u0120MISS": 49684,
  "\u0120invested": 13356,
  "lein": 33663,
  "\u0120misogyn": 22795,
  "Firstly": 49709,
  "\u0120administration": 3662,
  "\u0120caption": 8305,
  "Merit": 21583,
  "runners": 36740,
  "\u0120sums": 21784,
  "\u0120Mondays": 49748,
  "\u0120unbeat": 36499,
  "jon": 46286,
  "\u0120despised": 44990,
  "\u0120Iranians": 34608,
  "oire": 32177,
  "Border": 34189,
  "\u0120NBC": 9716,
  "\u0120292": 41569,
  "\u0120beneficial": 13205,
  "\u0120paed": 40697,
  "Changes": 29238,
  "\u0120commemor": 28723,
  "\u0120ecstasy": 38903,
  "\u0120disapp": 3786,
  "\u0120enthusiasts": 23099,
  "cil": 2856,
  "\u0120understands": 14759,
  "\u0120Kar": 9375,
  "________": 2602,
  "\u0120vile": 34942,
  "\u00e3\u0123\u012e": 35585,
  "\u0120Supplementary": 43008,
  "Word": 26449,
  "\u0120Seaf": 49967,
  "\u0120require": 2421,
  "endale": 41147,
  "aid": 1698,
  "\u0120Tal": 7193,
  "illions": 40083,
  "cpp": 20322,
  "\u0120successful": 4388,
  "\u0120yourselves": 27012,
  "\u0120boiler": 36741,
  "\u0120Finance": 15007,
  "\u0120reflection": 14580,
  "\u0120buying": 7067,
  "rera": 24420,
  "\u0120Det": 4614,
  "pes": 12272,
  "Above": 32397,
  "urses": 46998,
  "\u0120Brewer": 38822,
  "\u0120ing": 5347,
  "bows": 25435,
  "\u0120SK": 14277,
  "pg": 6024,
  "\u0120Thib": 49486,
  "\u0120eyel": 29708,
  "\u0120stakes": 21147,
  "stream": 5532,
  "Few": 32351,
  "\u0120314": 34085,
  "\u0120Personally": 31342,
  "\u0120lawmaker": 31340,
  "erve": 3760,
  "\u0120harness": 19356,
  "Lear": 14961,
  "Mail": 25804,
  "\u0120Assad": 13032,
  "apes": 7916,
  "\u0120Ibn": 29375,
  "xp": 42372,
  "\u0120written": 3194,
  "\u0120differing": 28742,
  "otherapy": 18952,
  "168": 14656,
  "\u0120inspect": 10104,
  "\u0120dropped": 5710,
  "\u0120tits": 33789,
  "\u012074": 8915,
  "urst": 24962,
  "\u0120PRO": 21965,
  "idity": 17995,
  "\u0120sphere": 16558,
  "ensitive": 18464,
  "\u0120Uk": 5065,
  "\u0120signings": 42113,
  "\u0120gunshot": 29444,
  "Wing": 35612,
  "\u0120punched": 25436,
  "\u0120Ruler": 31808,
  "Temp": 30782,
  "bay": 24406,
  "umblr": 15566,
  "\u0120SPR": 49068,
  "\u0120Sadd": 20454,
  "\u0120mont": 40689,
  "\u0120guides": 17555,
  "rupal": 34585,
  ":[": 33250,
  "\u0120misinterpret": 40882,
  "\u0120Romeo": 43989,
  "\u0120practition": 17629,
  "\u0120explor": 39180,
  "\u0120migrate": 32492,
  "\u0120Cuba": 14159,
  "ossession": 49809,
  "won": 26502,
  "\u0120kissing": 25847,
  "\u0120notor": 23305,
  "\u0120paradigm": 23457,
  "\u0120cloth": 16270,
  "\u0120pent": 28145,
  "\u0120Soci": 31339,
  "\u0120rebuild": 17884,
  "\u0120comprom": 8382,
  "\u0120distorted": 26987,
  "\u0120call": 869,
  "\u0120stimul": 11591,
  "\u0120rever": 33033,
  "\u0120Domestic": 29015,
  "\u0120tumultuous": 47312,
  "\u0120bikini": 45810,
  "\u0120probe": 12774,
  "\u0120Aph": 47067,
  "alyses": 43710,
  "\u0120Pag": 31525,
  "\u0120canal": 29365,
  "\u0120politic": 31723,
  "Creat": 16719,
  "\u0120modern": 3660,
  "adv": 32225,
  "yrs": 48489,
  "unders": 41116,
  "olid": 10180,
  "\u0120impaired": 22753,
  "\u0120Awakening": 28832,
  "\u0120pot": 1787,
  "advertisement": 45876,
  "pping": 2105,
  "CEO": 46691,
  "\u0120SAM": 28844,
  "\u0120costumes": 24138,
  "Palest": 32570,
  "brain": 27825,
  "\u0120bounty": 24180,
  "uch": 794,
  "\u0120Andreas": 33728,
  "\u0120towers": 18028,
  "Mix": 35608,
  "\u0120unofficial": 27220,
  "\u0120Ellen": 23811,
  "\u0120Flavor": 26438,
  "OOOOOOOO": 47732,
  "\u0120Given": 11259,
  "mie": 44871,
  "\u0120o": 267,
  "\u0120sarcast": 36543,
  "\u0120ske": 6146,
  "\u0120weighing": 21990,
  "cknow": 5319,
  "client": 16366,
  "\u0120correctly": 9380,
  "\u0120crude": 14897,
  "\u0120ID": 4522,
  "math": 11018,
  "\u0120requests": 7007,
  "acky": 36053,
  "\u0120nevertheless": 19032,
  "context": 22866,
  "\u0120ESV": 33910,
  "\u0120across": 1973,
  "\u0120mainland": 22779,
  "gression": 32383,
  "\u0120depressive": 36568,
  "\u0120rebate": 49099,
  "\u0120tweaked": 38304,
  "pse": 7752,
  "\u0120XT": 44235,
  "Apply": 44836,
  "\u0120laund": 22138,
  "\u0120liver": 14383,
  "\u0120Greenwald": 41821,
  "\u0120Fiorina": 49028,
  "Matthew": 25372,
  "\u0120passionate": 15347,
  "orned": 26994,
  "\u0120positive": 3967,
  "\u0120rud": 28906,
  "\u0120tribes": 15663,
  "ieft": 49868,
  "\u0120governmental": 21850,
  "POL": 45472,
  "\u0120Blackburn": 42603,
  "\u0120complement": 16829,
  "\u0120Rubio": 15476,
  "Andrew": 20508,
  "\u0120negligent": 42837,
  "establishment": 44390,
  "64": 2414,
  "\u0120Authent": 31885,
  "\u0120chaired": 44170,
  "unt": 2797,
  "\u0120Stephan": 20800,
  "\u0120Drake": 18515,
  "\u0120dile": 22825,
  "eals": 10621,
  "ounge": 20891,
  "\u0120Umb": 35716,
  "\u0120cleaned": 20750,
  "Lot": 48601,
  "\u0120orth": 29617,
  "fen": 41037,
  "ovember": 3239,
  "\u0120exempted": 48521,
  "\u0120teaspoons": 47234,
  "\\\\\\\\\\\\\\\\\\\\\\\\\\\\\\\\": 34604,
  "\u0120Ashton": 41398,
  "\u0120symbol": 6194,
  "amines": 41047,
  "\u0120Cris": 15088,
  "\u0120Klan": 31151,
  "\u0120RET": 30826,
  "midt": 21184,
  "in": 259,
  "\u0120Bel": 3944,
  "\u0120Removal": 46209,
  "\u0120ecc": 21399,
  "\u0120novelty": 31650,
  ")": 8,
  "\u0120infringement": 23059,
  "\u0120charred": 50045,
  "\u0120Appearance": 43436,
  "\u0120Edit": 5312,
  "ECD": 27295,
  "gender": 8388,
  "\u0120Cyn": 31040,
  "\u0120Lich": 35171,
  "\u0120Shaman": 34805,
  "READ": 15675,
  "\u0120Morgan": 10805,
  "heid": 28420,
  "EO": 4720,
  "\u0120cloves": 45025,
  "paralleled": 37859,
  "\u0120baby": 5156,
  "\u0120intro": 18951,
  "levant": 14938,
  "\u0120gigantic": 24804,
  "alk": 971,
  "\u0120Lif": 21073,
  "\u0120clever": 14169,
  "\u0120impetus": 43007,
  "\u0120Authorization": 35263,
  "\u0120Woo": 39832,
  "@@@@": 22675,
  "\u0120leaving": 4305,
  "\u0120Weekend": 30537,
  "\u0120zipper": 48992,
  "\u0120replace": 6330,
  "\u0120cooling": 15134,
  "\u0120Keyboard": 31973,
  "\u0120Senegal": 49657,
  "\u0120abhor": 42934,
  "\u0120ammo": 16778,
  "\u0120millions": 5242,
  "SM": 12310,
  "\u0120counter": 3753,
  "left": 9464,
  "\u0120biblical": 24726,
  "power": 6477,
  "\u0120kcal": 49504,
  "Sil": 15086,
  "\u0120limbs": 21755,
  "949": 48581,
  "\u0120bridge": 7696,
  "\u0120imprison": 11116,
  "\u0120Getty": 7136,
  "aged": 1886,
  "\u0120Amen": 34717,
  "san": 12807,
  "524": 48057,
  "school": 14347,
  "Sean": 26408,
  "win": 5404,
  "(\"": 7203,
  "cube": 40296,
  "\u0120------": 40103,
  "\u0120abandoned": 9958,
  "\u0120arom": 19731,
  "\u0120cal": 2386,
  "utations": 32855,
  "\u0120nervous": 10927,
  "affiliated": 46818,
  "ar": 283,
  "olition": 50014,
  "\u0120polished": 23895,
  "\u0120hostage": 23229,
  "\u0120prom": 1552,
  "\u0120separatist": 40680,
  "\u0120stress": 5503,
  "\u0120supplying": 28099,
  "\u0120tatt": 14399,
  "\u0120Mikhail": 42040,
  "\u0120unsatisf": 39264,
  "\u0120Ted": 11396,
  "\u0120illegal": 5293,
  "document": 22897,
  "\u0120Cookie": 39606,
  "\u0120mental": 5110,
  "\u0120leftist": 28318,
  "\u00e3\u0125\u012c": 26229,
  "EM": 3620,
  "680": 37397,
  "LA": 13534,
  "omic": 10179,
  "\u0120explosion": 11278,
  "\u0120pirate": 25868,
  "196": 25272,
  "\u0120faked": 49184,
  "\u0120flush": 24773,
  "\u0120minutes": 2431,
  "\u0120train": 4512,
  "\u0120LI": 24653,
  "\u0120Keynes": 33531,
  "\u0120revealing": 13477,
  "continental": 35415,
  "Really": 26392,
  "contained": 45964,
  "\u0120Hue": 31788,
  "olas": 12456,
  "\u00e3\u0124\u012b": 36853,
  "Review": 14832,
  "\u0120bomb": 5194,
  "\u0120brood": 50167,
  "\u0120league": 4652,
  "\u0120Dre": 30882,
  "\u0120Seeds": 41833,
  "iology": 12371,
  "Cont": 4264,
  "\u0120Deliver": 43371,
  "\u0120trace": 12854,
  "Everything": 19693,
  "tf": 27110,
  "215": 23349,
  "\u0120False": 10352,
  "ilitation": 18194,
  "income": 12519,
  "Event": 9237,
  "\u0120Railway": 32130,
  "\u0120Sob": 36884,
  "\u0120drainage": 37664,
  "\u0120Molecular": 38275,
  "\u0120translations": 25231,
  "\u0120tut": 9732,
  "\u0120whose": 3025,
  "\u0120Refugee": 42791,
  "////////////////": 27246,
  "arr": 3258,
  "glas": 14391,
  "\u0120Broadway": 20617,
  "\u0120null": 9242,
  "\u0120writer": 6260,
  "\u0120Flake": 39727,
  "\").": 11074,
  "iblical": 16897,
  "minus": 40191,
  "ves": 1158,
  "\u0120vacant": 23957,
  "\u0120STEP": 49154,
  "\u0120swelling": 29844,
  "\u0120reminder": 15438,
  "\u0120&&": 11405,
  "protection": 42846,
  "\u01202": 362,
  "\u0120expel": 46466,
  "\u0120Yoga": 32856,
  "\u0120duct": 28494,
  "\u0120misuse": 29169,
  "\u0120Ker": 17337,
  "\u0120enthusiastically": 42045,
  "\u0120maths": 47761,
  "\u0120valleys": 43088,
  "\u0120fireball": 46816,
  "\u0120migraine": 50082,
  "\u0120hive": 35881,
  "\u0120Neg": 13496,
  "\u0120concise": 35327,
  "encrypted": 43628,
  "mberg": 47369,
  "UV": 31667,
  "itime": 22552,
  "986": 49087,
  "asse": 21612,
  "ric": 1173,
  "\u0120disinfect": 48511,
  "\u0120insurance": 5096,
  "\u0120revised": 15556,
  "Bot": 20630,
  "\u0120Rome": 10598,
  "\u0120unfortunate": 14855,
  "\u0120strands": 36593,
  "\u0120IV": 8363,
  "ileaks": 27983,
  "\u0120Zan": 47022,
  "\u0120incur": 35870,
  "Timer": 48801,
  "zh": 23548,
  "\u0120GEAR": 43790,
  "erey": 48023,
  "\u0120Lob": 32684,
  "ep": 538,
  "Ar": 3163,
  "\u0120DPRK": 48363,
  "\u0120attached": 7223,
  "kee": 11035,
  "\u0120attained": 28681,
  "\u0120canvas": 21978,
  "\u0120prevented": 13351,
  "\u0120rockets": 20293,
  "igma": 13495,
  "reprene": 10406,
  "\u0120nicely": 16576,
  "\u0120Consider": 12642,
  "\u0120beings": 9791,
  "Del": 13856,
  "\u0120fundamentals": 33099,
  "ensions": 5736,
  "\u0120commandments": 43651,
  "news": 10827,
  "\u0120mattress": 33388,
  "\u0120narrower": 40369,
  "\u0120resc": 6811,
  "\u0120stepped": 10764,
  "\u00e6\u0139": 33768,
  "\u0120transformation": 13389,
  "\u0120western": 8830,
  "ried": 2228,
  "\u00ec\u013f": 35975,
  "\u0120deter": 2206,
  "\u0120unpaid": 24268,
  "jud": 10456,
  "\u0120Rescue": 17285,
  "\u0120communities": 5348,
  "phalt": 41942,
  "\u0120known": 1900,
  "\u0120USE": 23210,
  "\u0120domains": 18209,
  "\u0120estimates": 7746,
  "\u0120inform": 4175,
  "\u0120Ft": 45231,
  "Weiss": 48760,
  "\u0120Fighting": 19098,
  "\u0120subord": 21267,
  "\u0120Crossing": 31910,
  "\u0120secured": 13659,
  "\u0120unsafe": 21596,
  "Fat": 33804,
  "\u0120Trin": 33822,
  "\u0120downstream": 33218,
  "\u0120em": 795,
  "\u0120boon": 38181,
  "EDIT": 24706,
  "Rep": 6207,
  "\u0120Erdogan": 20065,
  "\u0120FN": 44260,
  "\u0120Hof": 37745,
  "\u0120itself": 2346,
  "\u0120Jos\u00c3\u00a9": 36997,
  "\u0120veterin": 33647,
  "\u0120behavioural": 41672,
  "\u0120Helmet": 35900,
  "\u0120Framework": 25161,
  "Jer": 36134,
  "MD": 12740,
  "oser": 13416,
  "Ob": 5944,
  "\u0120SHALL": 50163,
  "\u0120corresponds": 24866,
  "onent": 3471,
  "stop": 11338,
  "\u0120Bernard": 16197,
  "\u0120Maple": 21249,
  "\u0120Virus": 40584,
  "\u0120acquaint": 24852,
  "\u00e5\u012d": 47947,
  "\u0120contents": 10154,
  "\u0120elites": 21887,
  "\u0120extremists": 20674,
  "\u0120motivation": 14052,
  "\u0120\u00e2\u012a": 18872,
  "Comb": 20575,
  "\u0120Capt": 6790,
  "\u0120Lann": 39004,
  "\u0120Gen": 5215,
  "\u0120NIGHT": 37707,
  "\u0120sw": 1509,
  "\u0120crafted": 18025,
  "\u0120SUP": 19549,
  "Hon": 29478,
  "\u0120Using": 8554,
  "\u0120bi": 3182,
  "\u0120interchange": 26478,
  "func": 20786,
  "\u0120Nvidia": 27699,
  "\u0120Shak": 35274,
  "\u0120bloom": 29955,
  "vati": 36868,
  "\u0120daughter": 4957,
  "\u0120synonymous": 33271,
  "athon": 12938,
  "\u0120Sul": 29357,
  "Jet": 42273,
  "gered": 10446,
  "\u0120accommodate": 15550,
  "Mess": 36479,
  "\u0120Medals": 42171,
  "\u0120slam": 21158,
  "\u0120magically": 34850,
  "Lord": 22438,
  "MW": 14326,
  "\u0120Kier": 39717,
  "\u0120PER": 19878,
  "\u0120Lovecraft": 37655,
  "\u0120characterize": 34404,
  "\u0120smartest": 44730,
  "\u0120Hort": 31693,
  "\u0120Mechanical": 19663,
  "\u0120CONT": 22904,
  "bleacher": 47975,
  "\u0120Nath": 32607,
  "\u0120exposing": 21294,
  "\u0120honored": 21014,
  "\u0120reversed": 17687,
  "oman": 5185,
  "\u0120activate": 15155,
  "Since": 6385,
  "\u0120Senior": 14017,
  "\u0120Shards": 46464,
  "lation": 7592,
  "\u0120prospective": 17530,
  "\u0120eviction": 38738,
  "\u0120white": 2330,
  "\u0120blasted": 26044,
  "\u0120drones": 15382,
  "\u0120propriet": 38090,
  "odi": 23130,
  "\u0120skirts": 42370,
  "din": 25194,
  "\u0120century": 4289,
  "-,": 20995,
  "daughter": 29642,
  "\u0120Williamson": 34974,
  "\u0120popup": 46207,
  "aran": 19173,
  "\u0120Planned": 18451,
  "\u0120resid": 15384,
  "\u0120pac": 23503,
  "\u0120parting": 44823,
  "\u0120pengu": 38373,
  "\u0120Est": 10062,
  "odic": 29512,
  "\u0120lar": 26371,
  "\u0120:-)": 47226,
  "\u0120Highway": 14914,
  "\u0120poured": 19036,
  "\u0120dazzling": 41535,
  "\u0120showdown": 33338,
  "\u0120normalized": 39279,
  "oline": 14453,
  "\u0120signal": 6737,
  "\u0120harsher": 50243,
  "\u0120congregation": 28862,
  "\u0120Boost": 19835,
  "Bull": 39549,
  "\u0120metaphor": 23094,
  "\u0120slid": 27803,
  "\u0120tiers": 33355,
  "\u00c2\u00b1": 22519,
  "\u0120Cumber": 38732,
  "\u0120bottled": 34123,
  "\u0120placed": 4624,
  "ippery": 29530,
  "ounds": 3733,
  "652": 43193,
  "icas": 44645,
  "UB": 10526,
  "edience": 20826,
  "\u0120Australia": 4505,
  "\u0120Cognitive": 38655,
  "\u0120Ottoman": 34158,
  "\u0120pressed": 12070,
  "\u0120spray": 11662,
  "\u0120differential": 22577,
  "\u0120sitting": 5586,
  "Alias": 40489,
  "\u0120Lind": 9329,
  "\u0120Surrey": 38805,
  "\u0120wo": 24486,
  "\u0120...\"": 35713,
  "\u0120Donkey": 43823,
  "rar": 20040,
  "\u0120Gabe": 45513,
  "\u0120ironic": 25304,
  "Eh": 43894,
  "\u0120Vag": 37203,
  "oci": 1733,
  "Stew": 49328,
  "lling": 2680,
  "anchez": 20364,
  "\u0120pollut": 36156,
  "\u0120slower": 13611,
  "Domain": 43961,
  "ani": 3216,
  "\u0120Star": 2907,
  "\u0120DSL": 32643,
  "arks": 5558,
  "\u0120achievable": 47729,
  "Ph": 2725,
  "\u0120deployment": 14833,
  "\u0120evolved": 12572,
  "vironments": 12103,
  "always": 33770,
  "\u0120uncommon": 19185,
  "\u0120imbalance": 32556,
  "beh": 20709,
  "\u0120Nanto": 47614,
  "\u0120acknowledge": 12127,
  "\u0120252": 25264,
  "Du": 35660,
  "Leaks": 17874,
  "Resources": 33236,
  "VC": 15922,
  "472": 37856,
  "1992": 23847,
  "\u0120Protestant": 25310,
  "\u0120Teacher": 32019,
  "\u0120475": 45881,
  "\u0120Truck": 24892,
  "\u0120Whilst": 40661,
  "\u0120clarity": 16287,
  "\u0120ly": 22404,
  "rounder": 45788,
  "\u0120temples": 27081,
  "\u0120yearly": 24169,
  "\u0120Enjoy": 18179,
  "\u0120cords": 45173,
  "arium": 17756,
  "\u0120ect": 46080,
  "blers": 43022,
  "onde": 14378,
  "650": 17544,
  "\u0120CDC": 20434,
  "\u0120Guns": 20423,
  "\u0120ber": 18157,
  "\u0120coloured": 34746,
  "\u0120dead": 2636,
  "\u0120manag": 2358,
  "\u0120254": 35360,
  "\u0120Hayes": 25109,
  "\u0120td": 41560,
  "\u0120wardrobe": 35593,
  "++++++++++++++++": 44627,
  "\u0120wealth": 5129,
  "\u0120limitless": 44176,
  "ordered": 24071,
  "Comp": 7293,
  "owners": 15605,
  "\u0120348": 44084,
  "\u0120Naples": 49404,
  "\u0120Pam": 24497,
  "\u0120solar": 6591,
  "\u0120excitement": 14067,
  "ricting": 42870,
  "\u0120chipset": 49013,
  "\u0120hots": 33915,
  "plates": 17041,
  "Anna": 31160,
  "TD": 21016,
  "\u0120bending": 30808,
  "\u0120trailed": 40060,
  "\u0120Sep": 8621,
  "Former": 14282,
  "\u0120Norwich": 43586,
  "\u0120Gospel": 23244,
  "ledged": 37436,
  "\u0120slog": 25801,
  "\u0120Foley": 35535,
  "\u0120appeal": 5198,
  "\u0120Extrem": 47871,
  "culation": 14902,
  "\u0120drift": 24260,
  "Maybe": 13300,
  "\u0120reliably": 26995,
  "irie": 28191,
  "\u0120mourn": 25722,
  "\u0120Rays": 36199,
  "*/": 16208,
  "loe": 24617,
  "fficient": 5632,
  "\u0120entr": 24481,
  "tan": 38006,
  "\u0120Commissioner": 13270,
  "\u0120portraits": 31725,
  "\u0120Sight": 26864,
  "\u0120rampant": 26262,
  "\u0120stake": 10171,
  "\u0120vib": 16081,
  "\u0120statically": 47746,
  "\u0120staples": 46413,
  "lux": 22564,
  "\u0120collaborations": 48421,
  "iffin": 42022,
  "\u0120shorthand": 45883,
  "\u0120statistically": 19941,
  "fl": 2704,
  "\u0120safe": 3338,
  "\u0120Dot": 22875,
  "reatment": 21731,
  "\u0120covenant": 28173,
  "\u0120seed": 9403,
  "uted": 7241,
  "hour": 9769,
  "\u0120unreliable": 29954,
  "ombat": 41628,
  "\u0120Sina": 28743,
  "\u0120ROM": 21224,
  "\u0120halting": 45588,
  "still": 24219,
  "\u0120Rider": 16414,
  "\u0120Chapman": 29045,
  "\u0120Room": 10096,
  "\u0120Alz": 21535,
  "\u0120Cato": 44509,
  "\u0120Sah": 22982,
  "\u0120Westminster": 20353,
  "ilities": 2410,
  "\u0120habitual": 46020,
  "\u0120inception": 30839,
  "erg": 6422,
  "Import": 20939,
  "\u0120fault": 8046,
  "\u0120ministerial": 45555,
  "\u0120owner": 4870,
  "\u0120resolves": 38709,
  "\u01201972": 16101,
  "\u0120terrorist": 7417,
  "\u0120Ale": 9300,
  "\u0120lig": 26106,
  "\u0120pessim": 32277,
  "\u0120selfies": 45406,
  "Winged": 47418,
  "\u0120description": 6764,
  "\u0120motorists": 32688,
  "wd": 16993,
  "\u0120roll": 4836,
  "INS": 20913,
  "rawling": 18771,
  "\u0120PROG": 38688,
  "\u0120Jolly": 40276,
  "\u0120leaps": 37312,
  "\u0120reefs": 43190,
  "\u0120mounts": 30790,
  "\u0120Enchant": 33293,
  "did": 20839,
  "\u0120337": 42294,
  "\u0120272": 38107,
  "\u0120fantastic": 9623,
  "docker": 45986,
  "\u0120Thankfully": 31251,
  "\u00eb\u012d": 46695,
  "\u0120ident": 1852,
  "\u0120recommends": 20829,
  "vert": 1851,
  "\u0120beliefs": 9056,
  "Myth": 41444,
  "\u0120nu": 14364,
  "Soft": 18380,
  "\u0120lawsuits": 17785,
  "GROUND": 46025,
  "\u0120doubtless": 48662,
  "LR": 35972,
  "\u0120tribute": 17547,
  "\u0120spying": 23649,
  "7601": 42752,
  "vid": 16921,
  "aunting": 20706,
  "\u0120Loot": 29970,
  "\u0120pree": 47488,
  "assault": 46635,
  "iat": 5375,
  "\u0120Carl": 8124,
  "\u0120Dairy": 46579,
  "\u0120remake": 28763,
  "\u0120lim": 1761,
  "earch": 3679,
  "\u0120downed": 42281,
  "\u0120Putting": 39956,
  "EGIN": 43312,
  "irlwind": 32785,
  "\u0120LR": 37491,
  "BW": 48802,
  "\u0120iPod": 26915,
  "\u0120Abby": 49220,
  "\u0120Brenda": 49495,
  "\u0120Liz": 28313,
  "\u0120Jesuit": 50190,
  "\u0120Choice": 18502,
  "\u0120Paul": 3362,
  "\u0120camping": 22498,
  "\u0120grief": 18522,
  "\u00e2\u012b": 35705,
  "\u0120sidewalk": 24058,
  "ometown": 19191,
  "z": 89,
  "read": 961,
  "ennis": 10679,
  ")--": 42944,
  "\u0120presumptive": 39715,
  "\u0120cascade": 44847,
  "handed": 13638,
  "\u0120Long": 5882,
  "\u0120silence": 9550,
  "ihilation": 33299,
  "\u01201902": 45611,
  "\u0120Grill": 34814,
  "eering": 48066,
  "\u0120equilibrium": 29163,
  "\u0120Vi": 16049,
  "\u0120whom": 4150,
  "\u0120incarn": 22201,
  "vasive": 23747,
  "\u0120code": 2438,
  "Fail": 39044,
  "Have": 11980,
  "\u0120Bellev": 46643,
  "\u0120composer": 26777,
  "\u0120gripped": 42046,
  "\u0120mercy": 17703,
  "\u0120sincere": 17082,
  "ocated": 10533,
  "\u0120Native": 12547,
  "\u0120kilometers": 18212,
  "\u0120hed": 16418,
  "Fish": 39428,
  "sf": 28202,
  "hen": 831,
  "dot": 26518,
  "\u0120province": 8473,
  "\u0120Newtown": 37261,
  "\u0120feeble": 46299,
  "\u0120regular": 3218,
  "Ye": 35543,
  "Products": 48650,
  "\u0120breeze": 28633,
  "\u0120fruit": 8234,
  "\u0120striving": 34260,
  "\u0120correctness": 29409,
  "\u0120affection": 17696,
  "\u0120Berks": 45167,
  "\u0120knob": 36842,
  "goo": 42469,
  "\u0120littered": 41664,
  "\u0120soaring": 32376,
  "rely": 38015,
  "\u0120Fuller": 31863,
  "opathic": 44650,
  "\u0120popularity": 11533,
  "\u0120serpent": 33727,
  "ernandez": 18092,
  "\u0120poses": 17313,
  "\u0120Jade": 23386,
  "\u0120conductor": 39206,
  "\u0120Releases": 48691,
  "\u0120frost": 21682,
  "\u0120disposal": 18264,
  "Kids": 40229,
  "\u0120Buchanan": 36358,
  "\u0120volcan": 17516,
  "ivals": 10336,
  "\u0120Simmons": 22553,
  "Yesterday": 28065,
  "\u0120Restaur": 22463,
  "\u0120filibuster": 38940,
  "gnu": 41791,
  "strom": 20282,
  "\u0120holes": 10421,
  "\u0120kindness": 23887,
  "\u0120youth": 6205,
  "\u0120barking": 48961,
  "\u0120tagged": 30509,
  "bit": 2545,
  "\u0120tested": 6789,
  ">>>": 33409,
  "\u0120dusty": 36972,
  "\u0120appar": 17956,
  "\u0120Nether": 11692,
  "\u0120Randy": 21248,
  "lect": 801,
  "\u0120Feminist": 46259,
  "Values": 40161,
  "\u0120Reading": 11725,
  "\u0120boot": 6297,
  "\u0120Vintage": 34057,
  "\u0120buckets": 38674,
  "\u0120harvest": 13222,
  "\u0120Television": 21516,
  "\u0120objectively": 35721,
  "\u0120dismantling": 41928,
  "\u0120Bullets": 39984,
  "\u0120sophistication": 44809,
  "\u0120ceremonies": 27340,
  "\u0120taxpayer": 14776,
  "\u0120Semi": 35525,
  "\u0120roller": 24471,
  "\u0120blast": 11975,
  "Faith": 45536,
  "\u0120wastes": 43739,
  "jj": 41098,
  "Basically": 31524,
  "\u0120Reviews": 20871,
  "\u0120TJ": 41852,
  "0": 15,
  "\u0120collaborate": 30081,
  "uro": 1434,
  "\u0120Bak": 17466,
  "\u0120congressional": 11702,
  "\u0120Aerial": 47475,
  "\u0120devote": 24103,
  "\u0120gentleman": 22427,
  "\u0120Kinect": 48879,
  "\u0120pounding": 33919,
  "\u0120vitri": 48950,
  "\u0120worst": 5290,
  "\u0120correct": 3376,
  "\u0120Mars": 8706,
  "\u0120wondering": 11263,
  "\u0120preferred": 9871,
  "Block": 12235,
  "ference": 4288,
  "\u0120Walls": 40699,
  "\u0120calculus": 41443,
  "illy": 6548,
  "iegel": 28210,
  "rolet": 33087,
  "\u0120Invest": 7488,
  "308": 21495,
  "\u0120caused": 4073,
  "retched": 27528,
  "\u0120HUGE": 48068,
  "\u0120Guess": 37571,
  "rito": 39834,
  "\u0120contin": 1261,
  "\u0120buzzing": 41719,
  "\u0120departing": 37717,
  "\u0120iter": 11629,
  "\u0120king": 5822,
  "\u0120clot": 5148,
  "\u0120Bal": 8528,
  "\u0120Clayton": 32108,
  "\u0120company": 1664,
  "\u0120manifestations": 38538,
  "\u0120md": 45243,
  "\u0120meat": 6174,
  "\u0120modest": 12949,
  "\u0120prisoner": 17234,
  "\u0120repro": 43969,
  "\u0120responders": 33339,
  "\u0120Sap": 35980,
  "driving": 24255,
  "\u0120bail": 12274,
  "\u0120restores": 45815,
  "\u0120rulers": 24925,
  "\u0120sshd": 49249,
  "\u0120318": 39320,
  "ATIONS": 18421,
  "frames": 37805,
  "\u0120Coinbase": 45802,
  "\u0120Elves": 35172,
  "Gamer": 33648,
  "\u0120Poly": 12280,
  "\u0120authors": 7035,
  "istration": 33397,
  "\u0120Jaune": 29415,
  "\u0116": 210,
  "\u0120notwithstanding": 29951,
  "00000": 20483,
  "sighted": 44068,
  "\u0120Jinping": 39823,
  "\u0120Patient": 35550,
  "\u0120finan": 17240,
  "\u0120paste": 17008,
  "\u0120Defendants": 44162,
  "\u0120sturdy": 28055,
  "\u0120transplant": 23319,
  "\u0120wet": 9583,
  "\u0120decided": 3066,
  "pr": 1050,
  "644": 29173,
  "\u0120Singapore": 12551,
  "\u0120aside": 7263,
  "\u0120compel": 33729,
  "\u0120rescue": 9992,
  "\u0120buffalo": 45019,
  "\u00e7\u00a5\u0140": 15351,
  "\u0120LV": 24981,
  "\u0120Capitalism": 42678,
  "henko": 30161,
  "\u0120Proper": 45989,
  "unknown": 34680,
  "\u0120197": 29903,
  "\u0120RR": 26067,
  "\u0120restaurant": 7072,
  "\u0120unn": 41231,
  "\u0120distinctions": 36640,
  "\u0120midrange": 49260,
  "\u0120yellow": 7872,
  "\u0120guidelines": 9949,
  "ursion": 24197,
  "\u0120Haven": 21425,
  "Problem": 40781,
  "ilian": 35824,
  "\u0120Band": 10243,
  "\u0120PIT": 49040,
  "\u0120direction": 4571,
  "\u0120reboot": 20149,
  "\u0120153": 24652,
  "\u0120refer": 3522,
  "\u0120reviewer": 37823,
  "\u0120rig": 7805,
  "\u0120smelled": 37609,
  "\u0120stressed": 15033,
  "URI": 47269,
  "\u0120tipped": 28395,
  "pret": 5310,
  "sent": 34086,
  "\u0120Dise": 14865,
  "ik": 1134,
  "\u0120Hubbard": 34342,
  "\u0120Sly": 31615,
  "Hall": 34194,
  "\u0120VIDEOS": 48876,
  "\u0120arra": 44723,
  "\u0120competed": 32440,
  "\u0120compliance": 11846,
  "\u0120gruesome": 34557,
  "IRD": 46833,
  "\u0120SUN": 35329,
  "\u0120fisheries": 41440,
  "\u0120lamented": 40176,
  "\u0120optics": 36237,
  "\u0120wom": 1116,
  "Recommended": 36171,
  "\u0120PG": 23842,
  "\u0120level": 1241,
  "\u00e3\u0125\u0132": 29659,
  "\u0120truths": 24279,
  "\u0120onward": 38232,
  "aith": 3921,
  "iform": 6933,
  "uss": 1046,
  "ebra": 37052,
  "\u0120DevOnline": 47571,
  "\u0120Immun": 25445,
  "\u0120snacks": 28487,
  "\u0120Factor": 27929,
  "99": 2079,
  "\u0120JUL": 49349,
  "\u0120Myster": 12099,
  "\u0120observing": 21769,
  "ranking": 28405,
  "\u0120sings": 33041,
  "chell": 12398,
  "hole": 13207,
  "\u0120wing": 8539,
  "conserv": 38925,
  "\u0120Announce": 43470,
  "\u0120puppies": 37793,
  "\u0120rept": 28761,
  "\u0120Maur": 18867,
  "\u0120thicker": 29175,
  "\u0120Doyle": 31233,
  "utz": 27839,
  "\u0120implementation": 7822,
  "ffen": 46985,
  "\u0120traditionally": 16083,
  "\u0120FREE": 17189,
  "\u0120398": 39260,
  "\u0120neighborhoods": 14287,
  "\u0120attm": 36926,
  "\u0120ropes": 31001,
  "Aff": 35191,
  "Collins": 49645,
  "net": 3262,
  "andr": 46273,
  "\u0120leaping": 45583,
  "strings": 37336,
  "dyl": 30360,
  "\u0120human": 1692,
  "\u0120proceeding": 18788,
  "\u0120reviewed": 11765,
  "\u0120Luo": 25956,
  "heric": 15011,
  "rust": 11469,
  "UP": 8577,
  "\u0120Icelandic": 41959,
  "\u0120Orlando": 13117,
  "\u0120briefing": 17719,
  "\u0120mirror": 10162,
  "\u00e7\u0137": 45911,
  "\u0120disadvant": 14560,
  "\u0120blight": 42514,
  "\u0120compares": 23008,
  "\u0120legitimately": 36491,
  "\u0120Cao": 34513,
  "ciation": 17269,
  "\u0120WE": 12887,
  "URR": 31302,
  "\u0120exports": 15319,
  "\u0120trash": 13913,
  "\u0120widespread": 10095,
  "pots": 40793,
  "Interface": 39317,
  "\u0120Exercise": 32900,
  "EB": 30195,
  "\u0120Puzzle": 23966,
  "\u0120Accounting": 40964,
  "\u0120converter": 38394,
  "Hey": 10814,
  "sem": 43616,
  "\u0120Dortmund": 36888,
  "interrupted": 46037,
  "Available": 10493,
  "\u0120Ninja": 14152,
  "\u0120Charleston": 26070,
  "\u0120affirmed": 31036,
  "\u0120assignment": 16237,
  "\u0120neighbours": 23788,
  "herence": 23545,
  "\u0120Residential": 46388,
  "ollower": 47030,
  "\u0120pairing": 27356,
  "afia": 22214,
  "gress": 5914,
  "\u0120Heart": 8894,
  "\u0120mushroom": 28520,
  "481": 40271,
  "tall": 35429,
  "\u0120brigade": 35889,
  "\u0120callback": 23838,
  "\u0120nurt": 23868,
  "\u0120subscribed": 45794,
  "ications": 3736,
  "\u0120crossing": 12538,
  "VEN": 28290,
  "\u0120Boone": 44317,
  "\u0120DPS": 25366,
  "Nation": 46108,
  "\u0120Afric": 3295,
  "\u0120encaps": 32652,
  "\u0120fence": 13990,
  "\u0120superiority": 26883,
  "iber": 1856,
  "\u0120Jam": 9986,
  "\u0120rainfall": 25807,
  "----": 650,
  "NA": 4535,
  "{{": 27007,
  "\u0120intimately": 42075,
  "\u0120talks": 6130,
  "China": 14581,
  "\u0120braces": 47241,
  "752": 43665,
  "Liber": 31199,
  "\u0120ET": 12152,
  "ICA": 25241,
  "kil": 34553,
  "ptive": 21665,
  "gl": 4743,
  "\u0120Wings": 17330,
  "\u0120esp": 15024,
  "\u0120straight": 3892,
  "ial": 498,
  "\u0120reintrodu": 38368,
  "\u0120suburban": 20154,
  "\u0120widened": 36405,
  "elson": 10151,
  "\u0120tend": 4327,
  "\u0120originated": 20973,
  "\u00d0\u00be\u00d0": 25443,
  "Els": 45507,
  "alogy": 48909,
  "ylan": 18554,
  "\u00d0\u00be": 15166,
  "\u0120reducing": 8868,
  "por": 1819,
  "\u0120THEN": 42243,
  "sov": 47272,
  "ULTS": 35342,
  "998": 34808,
  "ASY": 26483,
  "matically": 49454,
  "\u0120unavoid": 34804,
  "THER": 21250,
  "Own": 23858,
  "awaited": 41742,
  "\u0120Phil": 4543,
  "\u0120settings": 6460,
  "\u0120hiding": 11816,
  "\u00b4": 112,
  "\u0120elevate": 36830,
  "\u0120americ": 45630,
  "\u0120pine": 20161,
  "\u0120heroes": 10281,
  "\u0120quaint": 50127,
  "hya": 48812,
  "\u0120Communism": 39627,
  "\u00e2\u0139\u0131": 28133,
  "\u0120owing": 27120,
  "mr": 43395,
  "\u0120Kling": 28638,
  "\u0120limits": 7095,
  "undo": 41204,
  "cuts": 23779,
  "\u0120Painter": 49102,
  "\u0120valley": 19272,
  "Year": 17688,
  "\u0120CONTR": 27342,
  "\u0120emitted": 31234,
  "398": 31952,
  "\u0120melody": 32859,
  "\u0120surreal": 28201,
  "olic": 4160,
  "\u0120magistrate": 38620,
  "\u0120parasite": 38473,
  "ops": 2840,
  "\u0120Lorenzo": 41721,
  "\u0120glutamate": 48402,
  "\u0120rallied": 32537,
  "\u0120Contra": 46243,
  "776": 39509,
  "\u0120boasting": 40776,
  "games": 19966,
  "Early": 20457,
  "dal": 31748,
  "oshi": 13704,
  "\u0120Bronze": 19461,
  "\u0120Cairo": 23732,
  "\u0120designated": 11032,
  "\u0120HTC": 22063,
  "\u0120horse": 8223,
  "\u0120links": 6117,
  "\u0120leukemia": 49030,
  "\u0120Period": 18581,
  "ruption": 6417,
  "Att": 8086,
  "\u0120annotation": 23025,
  "rared": 25122,
  "\u0120sweaty": 47599,
  "\u0120Richard": 6219,
  "affected": 43958,
  "\u0120Abs": 13051,
  "\u0120lender": 35747,
  "Nitrome": 42066,
  "\u0120Tick": 46093,
  "\u0120pawn": 29649,
  "XL": 32457,
  "\u0120Director": 5890,
  "\u0120Tir": 39847,
  "roximately": 24378,
  "\u0120Import": 17267,
  "\u0120folder": 9483,
  "\u0120dil": 11844,
  "zens": 8247,
  "\u0120Cubs": 21562,
  "\u0120toilet": 16146,
  "\u0120votes": 5690,
  "work": 1818,
  "fam": 44769,
  "\u0120Ingram": 44211,
  "cool": 24494,
  "yellow": 36022,
  "\u0120Trend": 22836,
  "\u0120electric": 5186,
  "\u0120Nikon": 31356,
  "\u0120sans": 38078,
  "\u0120Dover": 46578,
  "\u0120degener": 25419,
  "pect": 806,
  "\u0120stable": 8245,
  "\u0120inaccur": 47283,
  "\u0120summons": 28596,
  "oho": 40950,
  "\u0120writers": 8786,
  "rowing": 11577,
  "claim": 6604,
  "\u0120Assass": 16722,
  "\u0120confounding": 43849,
  "\u0120hitters": 34113,
  "thur": 11098,
  "blood": 18041,
  "\u0120att": 708,
  "\u0120practitioner": 32110,
  "\u0120155": 20708,
  "\u0120billing": 26297,
  "\u0120Bird": 14506,
  "\u0120Burg": 21435,
  "\u0120SR": 16808,
  "CON": 10943,
  "\u00d6": 146,
  "amin": 5669,
  "\u0120Shawn": 25225,
  "\u0120decap": 44736,
  "\u0120Weeks": 33259,
  "ods": 12978,
  "\u0120Hann": 14353,
  "\u0120Janeiro": 42799,
  "\u0120Host": 14504,
  "\u0120Message": 16000,
  "\u0120gallery": 15604,
  "Benef": 42166,
  "\u0120inqu": 7949,
  "\u0120kilograms": 37075,
  "48": 2780,
  "\u0120passer": 30286,
  "\u0120restitution": 44862,
  "\u0120Jeffrey": 19627,
  "ahah": 36225,
  "\u0120Psychological": 30583,
  "\u0120vict": 2210,
  "\u0120utilization": 32121,
  "\u0120Bus": 5869,
  "aily": 3079,
  "\u0120Jared": 19116,
  "ategor": 47467,
  "Rated": 15322,
  "\u0120addicts": 32510,
  "\u0120cherished": 41238,
  "\u0120fermentation": 35115,
  "\u0139": 245,
  "ised": 1417,
  "Whatever": 21875,
  "\u0120accountant": 42627,
  "line": 1370,
  "\u0120Pamela": 43341,
  "\u0120credited": 18141,
  "\u0120Alph": 39805,
  "\u0120fascination": 35556,
  "\u0120USS": 23116,
  "\u0120mascul": 18498,
  "pathy": 16786,
  "stocks": 29522,
  "rament": 15141,
  "\u0120MR": 17242,
  "enger": 6540,
  "Basic": 26416,
  "Southern": 44993,
  "Option": 19722,
  "&": 5,
  "yards": 33750,
  "\u00c3\u00b6n": 48863,
  "\u00e0\u00a9": 43297,
  "\u0120Cinem": 21932,
  "\u0120Nicol": 40513,
  "Configuration": 38149,
  "\u0120Chau": 49628,
  "\u0120enhancement": 28554,
  "\u0120fires": 12252,
  "\u0120teammates": 13107,
  "\u0120veterinarian": 41404,
  "arcity": 32689,
  "\u0120Glow": 45929,
  "\u0120Function": 15553,
  "\u0120Pasadena": 41010,
  "\u0120blunt": 19861,
  "\u01200": 657,
  "\u0120endemic": 42560,
  "\u0120scratching": 34688,
  "\u0120vending": 47254,
  "OF": 19238,
  "\u0120\u00e2\u012b\u00a5": 26870,
  "\u0120bluff": 43565,
  "\u0120Shannon": 28108,
  "\u0120Hong": 9764,
  "\u0120psychiat": 19820,
  "\u0120Made": 14446,
  "\u0120contam": 14244,
  "\u00c2\u00b7\u00c2\u00b7": 35147,
  "\u0120GREEN": 47606,
  ">>": 4211,
  "Turkish": 42872,
  "\u00e5\u00bd": 37605,
  "\u0120Dim": 14048,
  "\u0120Liu": 18258,
  "\u0120Sox": 17689,
  "regor": 32288,
  "\u0120customization": 31344,
  "\u0120investigating": 10240,
  "\u0120overcl": 40397,
  "\u0120righteous": 19539,
  "\u0120sock": 32263,
  "imm": 8608,
  "\u0120Regener": 40721,
  "\u0120realism": 30787,
  "AG": 4760,
  "tenance": 8219,
  "\u0120Stri": 26137,
  "\u0120chess": 19780,
  "phis": 18691,
  "------": 23031,
  "\u0120slave": 11778,
  "ardy": 39124,
  "inders": 29700,
  "\u0120Mercury": 21673,
  "\u0120advis": 8503,
  "\u0120Que": 4670,
  "\u0120Dresden": 46993,
  "\u0120their": 511,
  "52": 4309,
  "rawn": 5791,
  "\u0120Gutierrez": 48283,
  "\u00e9\u00be\u012f\u00e5\u00a5\u0133\u00e5\u00a3\u00ab": 39821,
  "Getty": 6633,
  "ervation": 13208,
  "\u0120Mich": 2843,
  "\u0120Creep": 41682,
  "\u0120Nau": 50071,
  "\u012052": 6740,
  "\u0120Hai": 36876,
  "\u0120Taylor": 8121,
  "\u0120induces": 43614,
  "\u0120reference": 4941,
  "\u0120unst": 15014,
  "filter": 24455,
  "\u0120EDITION": 39219,
  "\u0120Imperial": 11773,
  "subject": 32796,
  "\u0120qualifiers": 40528,
  "\u0120LIN": 43277,
  "izabeth": 9924,
  "\u0120vine": 17793,
  "\u0120Harbor": 21146,
  "\u0120Lars": 31239,
  "\u0120um": 23781,
  "\u0120library": 5888,
  "melon": 45690,
  "\u0120Matter": 16900,
  "2010": 10333,
  "\u0120Cor": 2744,
  "\u0120Kham": 45159,
  "\u0120curve": 12133,
  "\u0120MacDonald": 37131,
  "\u0120Schn": 45606,
  "MU": 42422,
  "ouver": 10166,
  "Install": 15798,
  "Thor": 46765,
  "rows": 8516,
  "\u0120Glac": 42719,
  "\u0120Hey": 14690,
  "\u0120linear": 14174,
  "\u0120geared": 31394,
  "\u0120relocation": 35703,
  "\u0120Phase": 18983,
  "\u0120monastery": 38139,
  "afer": 34659,
  "\u0120Nest": 21420,
  "increasing": 42647,
  "\u0120Partnership": 23270,
  "\u0120memorial": 17357,
  "avanaugh": 19872,
  "\u0120sound": 2128,
  "\u0120rgb": 46140,
  "\u0120incarnation": 29185,
  "\u0120totally": 6635,
  "\u0120prophecy": 28322,
  "\u0120appointing": 47680,
  "\u0120Classical": 43680,
  "\u0120spots": 10222,
  "ro": 305,
  "delay": 40850,
  "\u0120Stefan": 28842,
  "Shin": 44592,
  "\u0120recl": 41893,
  "cast": 2701,
  "component": 42895,
  "\u0120pierced": 41159,
  "468": 38472,
  "below": 35993,
  "\u0120afar": 44246,
  "\u0120Story": 8362,
  "\u0120wallets": 29608,
  "\u0120Perkins": 29618,
  "\u0120PM": 3122,
  "\u0120eat": 4483,
  "\u0120GREAT": 37853,
  "\u0120largeDownload": 42728,
  "\u0120contrace": 17473,
  "plets": 46916,
  "\u0120passes": 8318,
  "\u0120kidnap": 49679,
  "\u0120DOE": 46984,
  "\u0120participates": 49567,
  "\u0120squat": 22713,
  "\u00e7\u0126": 47078,
  "\u012000": 3571,
  "\u0120SAF": 37630,
  "\u0120editing": 12857,
  "\u0120fiercely": 33285,
  "DER": 14418,
  "\u0120Design": 8495,
  "Twenty": 34096,
  "ricular": 41001,
  "\u0120KM": 46646,
  "\u0120incre": 1253,
  "\u0120purchasing": 14080,
  "neum": 25668,
  "\u0120aforementioned": 20794,
  "\u0120confronting": 31291,
  "\u0120replacing": 13586,
  "\u0120strictly": 14084,
  "\u0120unlock": 12116,
  "\u0120unstable": 21354,
  "\u0120visually": 22632,
  "BI": 3483,
  "\u0120Cavern": 40230,
  "\u0120Jays": 23288,
  "\u0120Movies": 27151,
  "PIN": 44032,
  "having": 40965,
  "\u0120smokers": 24109,
  "raits": 27554,
  "\u01201800": 21431,
  "native": 30191,
  "\u0120ascertain": 35520,
  "\u0120indign": 35187,
  "ockey": 8337,
  "\u0120confirm": 6216,
  "\u0120meltdown": 37824,
  "\u0120Lib": 7980,
  "Cour": 25877,
  "557": 41948,
  "Spect": 49738,
  "iovascular": 19381,
  "omb": 2381,
  "\u0120Craigslist": 46001,
  "ordes": 35770,
  "\u0120Cro": 9325,
  "\u0120Pepper": 24346,
  "\u0120enorm": 8885,
  "\u0120nominations": 30994,
  "\u0120posterior": 34319,
  "No": 2949,
  "orf": 24263,
  "\u0120severely": 15052,
  "Pred": 39156,
  "\u0120NI": 24947,
  "\u0120adventurous": 39770,
  "\u0120gmaxwell": 31886,
  "\u0120Samson": 47977,
  "Ba": 34458,
  "\u01201984": 12844,
  "\u00e3\u0124\u00a9": 37662,
  "\u0120residents": 5085,
  "\u0120Diver": 50137,
  "\u0120priorit": 19086,
  "\u0120Daniels": 28162,
  "\u0120Multi": 15237,
  "ummer": 31647,
  "picked": 41891,
  "\u0120barley": 38877,
  "\u0120sleeps": 44263,
  "thinking": 28973,
  "\u0120delayed": 11038,
  "\u0120dairy": 17659,
  "\u0120witnessed": 13923,
  "Re": 3041,
  "\u0120petition": 8853,
  "\u0120hectares": 43025,
  "aky": 15492,
  "Software": 25423,
  "reference": 35790,
  "\u0120Capitals": 40707,
  "isSpecial": 39714,
  "\u0120Emer": 10320,
  "\u0120psychic": 25058,
  "amping": 37843,
  "\u0120travelers": 23325,
  "\u0120weapons": 3777,
  "Product": 15667,
  "ayne": 43906,
  "Gener": 8645,
  "\u0120URL": 10289,
  "\u0120contr": 3445,
  "remove": 28956,
  "IENCE": 42589,
  "\u0120compromised": 19066,
  "\u0120absolutely": 5543,
  "\u0120dual": 10668,
  "\u0120knight": 22062,
  "\u0120spheres": 34126,
  "ophile": 37161,
  "\u0120multiply": 29162,
  "UX": 31235,
  "Lock": 25392,
  "asa": 15462,
  "\u0120Aid": 22225,
  "\u0120Cull": 31289,
  "\u0120Identity": 27207,
  "\u0120assistant": 8796,
  "\u0120majors": 26353,
  "\u0120teamed": 31230,
  "\u0120traces": 20675,
  "\u0120coast": 7051,
  "Cas": 35155,
  "adelphia": 8273,
  "flation": 33521,
  "rious": 32527,
  "esides": 11788,
  "\u0120Athletic": 29007,
  "\u0120YOUR": 16592,
  "\u0120Ped": 13457,
  "\u0120auxiliary": 37419,
  "\u0120upgrading": 25485,
  "DI": 17931,
  "\u0120courtroom": 24832,
  "\u0120embodiments": 32403,
  "ika": 9232,
  "ona": 4450,
  "\u0120Keen": 32444,
  "\u0120animations": 22407,
  "\u0120confession": 24250,
  "reci": 29102,
  "\u0120sarc": 40638,
  "\u0120Turbo": 22278,
  "\u0120Croatian": 48853,
  "\u0120trave": 10160,
  "\u0120attaching": 39550,
  "signed": 32696,
  "\u0120crush": 19813,
  "\u0120designed": 3562,
  "\u0120admon": 37202,
  "\u0120meetings": 8292,
  "\u0120suc": 6522,
  "\u0120Tang": 18816,
  "\u0120massacres": 50010,
  "ainers": 50221,
  "Sure": 19457,
  "\u0120Hunter": 9055,
  "\u00b6\u0127": 41678,
  "Priv": 20184,
  "\u0120Masonic": 47237,
  "\u0120rarely": 8365,
  "\u0120introdu": 3120,
  "\u0120It": 632,
  "\u00e3\u0125\u012d": 30165,
  "\u0120Simply": 17973,
  "\u0120Pv": 18367,
  "\u0120OCD": 43699,
  "SON": 11782,
  "\u0120MAS": 32337,
  "\u0120powder": 11913,
  "\u00e5\u00b0": 22887,
  "itute": 3678,
  "\u0120depictions": 44528,
  "\u0120caval": 25820,
  "\u0120prism": 46475,
  "ItemImage": 25502,
  "\u0120rails": 27587,
  "\u0120researching": 24114,
  "astically": 16607,
  "\u0120ND": 25524,
  "\u0120rehears": 28779,
  "\u0120Pont": 26345,
  "\u0120segregated": 38135,
  "\u0120sexual": 3206,
  "\u0120tasked": 23052,
  "bage": 13866,
  "stad": 24107,
  "ventions": 16593,
  "\u0120Barb": 10593,
  "\u0120Benghazi": 22497,
  "\u0120McCl": 23780,
  "\u0120UL": 44475,
  "\u0120Rapids": 27466,
  "\u0120APPLIC": 39421,
  "design": 26124,
  "riger": 18096,
  "\u0120Assange": 21882,
  "\u0120Ser": 2930,
  "\u0120rabid": 49666,
  "alid": 10751,
  "\u0120spokesperson": 11821,
  "\u0120freezes": 44389,
  "\u0120Plato": 32976,
  "anse": 40054,
  "GAN": 45028,
  "\u0120noises": 26782,
  "\u0120fleeing": 19105,
  "\u0120Hamp": 13039,
  "ilion": 29935,
  "\u0120enforcement": 5394,
  "eed": 2308,
  "\u0120everlasting": 45697,
  "\u0120Hodg": 37480,
  "\u0120tyr": 22934,
  ")+": 47762,
  "\u0120immedi": 2729,
  "\u0120trouble": 5876,
  "Condition": 48362,
  "\u0120vest": 19750,
  "\u0120woo": 36440,
  "\u0120businessman": 19834,
  "\u0120\u00e2\u0128\u0133": 24935,
  "\u0120Kore": 3374,
  "\u00e2\u0122\u012d\u00e2\u0122\u012d": 39009,
  "\u0120ceases": 42217,
  "\u0120deal": 1730,
  "\u0120Candle": 44973,
  "\u0120gorgeous": 18857,
  "\u0120assault": 4641,
  "\u0120joked": 27582,
  "\u0120tweets": 12665,
  "\u0120antim": 37802,
  "\u0120Wildlife": 18006,
  "Chel": 38292,
  "\u0120noticing": 28107,
  "\u0120Order": 8284,
  "More": 5167,
  "\u0120removing": 10829,
  "\u0120sizing": 47016,
  "\u0120pays": 13831,
  "\u0120aggro": 44082,
  "45": 2231,
  "\u0120Simpsons": 34376,
  "\u0120Mission": 12633,
  "\u0120106": 15696,
  "130": 12952,
  "SHARE": 42597,
  "\u0120Yosh": 28563,
  "rendered": 26238,
  "\u0120arcade": 27210,
  "\u0120smoking": 9216,
  "icides": 16751,
  "\u0120Recorded": 50096,
  "\u0120secretion": 42432,
  "\u0120Pau": 37329,
  "\u0120Turn": 6756,
  "\u0120disc": 1221,
  "\u0120Nichols": 38403,
  "\u0120adjustable": 28138,
  "\u0120suffered": 6989,
  "\u0120escalated": 33190,
  "\u0120beaut": 3566,
  "\u0120Proxy": 38027,
  "mpire": 35386,
  "\u0120Ric": 15868,
  "AP": 2969,
  "agar": 32452,
  "ered": 1068,
  "Warning": 20361,
  "\u0120introduction": 9793,
  "\u0120camera": 4676,
  "\u0120grilled": 34240,
  "\u0120performance": 2854,
  "\u0120Alcohol": 21051,
  "\u0120preference": 12741,
  "crete": 38669,
  "\u0120jars": 33008,
  "\u0120styling": 35517,
  "\u0120Joe": 5689,
  "\u0120glaring": 29097,
  "180": 15259,
  "\u0120RD": 31475,
  "\u0120Tap": 16880,
  "\u0120toss": 12153,
  "imbabwe": 27175,
  "\u0120resolutions": 21811,
  "\u0120Hos": 30789,
  "helle": 34454,
  "\u0120UNDER": 35219,
  "ional": 1538,
  "\u0120ideals": 22247,
  "\u0120Seal": 26975,
  "\u00d1\u0123": 21727,
  "\u0120dispel": 45629,
  "\u0120Breat": 40285,
  "MAN": 10725,
  "\u0120Sav": 8858,
  "\u0120fuller": 44757,
  "\u0120reviewing": 17217,
  "eth": 2788,
  "\u0120Stalin": 17482,
  "Syria": 40029,
  "\u0120Vie": 47154,
  "\u0120magnification": 44120,
  "\u0120constructor": 23772,
  "pleasant": 21109,
  "\u0120ben": 1888,
  "\u00e2\u0122\u0136\u00e2\u0122\u0136": 4500,
  "d": 67,
  "oxicity": 44086,
  "\u0120bandwagon": 49401,
  "\u0120competitive": 7606,
  "Ultra": 36122,
  "\u0120ours": 16903,
  "\u0120profitability": 37129,
  "\u0120substit": 21436,
  "\u012061": 8454,
  "\u0120\u00e7": 13328,
  "\u0120Surv": 10954,
  "\u0120textures": 20028,
  "\u0120tumor": 22359,
  "\u0120Kumar": 26105,
  "\u0120\u00e2\u0139\u0131": 48049,
  "\u0120Patriarch": 48665,
  "\u0120Bro": 2806,
  "\u0120experimenting": 27826,
  "raged": 18312,
  "ipes": 18636,
  "\u0120Rac": 24746,
  "umped": 27073,
  "\u0120Lv": 24388,
  "\u0120ambul": 18907,
  "\u0120laughs": 22051,
  "\u0120palp": 38891,
  "github": 12567,
  "\u0120run": 1057,
  "\u0120brink": 29585,
  "\u0120statutory": 20693,
  "\u0120neck": 7393,
  "oda": 11329,
  "\u0120priv": 1953,
  "\u0120201": 580,
  "NL": 32572,
  "PO": 16402,
  "Bul": 33481,
  "software": 43776,
  "}": 92,
  "\u0120Dip": 43945,
  "\u0120British": 3517,
  "\u0120PATH": 46490,
  "\u0120Verge": 44499,
  "\u0120Undead": 31326,
  "\u0120beyond": 3675,
  "\u0120Application": 15678,
  "\u0120portals": 42604,
  "====": 1421,
  "\u0120sucker": 48431,
  "\u0120physics": 11887,
  "\u0120shining": 22751,
  "Sund": 20602,
  "\u0120Zhou": 32222,
  "\u0120sheet": 9629,
  "\u0120vot": 1993,
  "icle": 1548,
  "\u0120gathering": 11228,
  "\u0120globe": 13342,
  "\u0120priceless": 49083,
  "peror": 8723,
  "RAY": 30631,
  "US": 2937,
  "\u0120Pay": 7119,
  "\u0120theater": 13766,
  "vote": 27257,
  "344": 33535,
  "ettings": 12374,
  "\u0120Berlin": 11307,
  "\u0120bonding": 37228,
  "\u0120simplistic": 35010,
  "\u0120Mavericks": 36002,
  "\u0120swirl": 42835,
  "\u0120city": 1748,
  "aughters": 13441,
  "\u0120scope": 8354,
  "duct": 2359,
  "\u0120Moff": 41069,
  "nih": 37373,
  "\u0120Medline": 34582,
  "\u0120approximately": 6702,
  "\u0120Adelaide": 27139,
  "\u0120earthqu": 13198,
  "Alabama": 49177,
  "functional": 45124,
  "\u0120narrowed": 33214,
  "\u0120Hoff": 21890,
  "]+": 48688,
  "\u0120suicides": 32776,
  "ritten": 9108,
  "\u0120Den": 5601,
  "\u0120Grail": 41036,
  "\u0120IPA": 27966,
  "\u0120Petr": 47377,
  "\u0120diplom": 8003,
  "126": 19420,
  "\u0120Adidas": 48976,
  "eston": 19115,
  "\u0120Smoke": 25416,
  "enez": 11437,
  "\u0120October": 3267,
  "\u0120Tort": 28467,
  "\u0120publications": 16125,
  "\u0120silly": 14397,
  "\u0120lobb": 14194,
  "\u0120unsuspecting": 41975,
  "'.\"": 30827,
  "\u0120Read": 4149,
  "Ste": 7447,
  "anski": 44978,
  "\u0120Tur": 3831,
  "HY": 42598,
  "details": 36604,
  "ributes": 7657,
  "\u0120axes": 34197,
  "\u0120interventions": 19901,
  "iang": 15483,
  "\u0120oversaw": 40394,
  "Uh": 34653,
  "\u0120Islam": 3449,
  "\u0120Bought": 29888,
  "\u0120HEL": 36255,
  "\u0120eligibility": 20069,
  "ause": 682,
  "\u0120provoking": 45625,
  "Location": 14749,
  "larg": 15521,
  "\u0120Frances": 27025,
  "\u0120Axe": 28570,
  "\u0120chronic": 10726,
  "untary": 26468,
  "\u0120outward": 23537,
  "\u0120influx": 25065,
  "alty": 6017,
  "\u00a3": 96,
  "\u0120committee": 5583,
  "\u0120sects": 48027,
  "\u0120\u00c2\u0143": 22020,
  "DeliveryDate": 39749,
  "\u00c3\u00b6r": 30570,
  "\u0120literary": 16716,
  "\u0120classified": 10090,
  "\u0120streams": 15190,
  "GI": 18878,
  "ression": 2234,
  "\u0120chau": 46901,
  "WA": 15543,
  "\u0120backed": 9763,
  "\u0120STATE": 35454,
  "\u0120kidneys": 41395,
  "oint": 1563,
  "\u0120portraying": 42458,
  "\u0120advancement": 27647,
  "encer": 12137,
  "\u0120Econom": 6683,
  "\u0120driveway": 33515,
  "\u0120books": 3835,
  "\u0120Ambassador": 20656,
  "\u0120Class": 5016,
  "\u0120Gifts": 48462,
  "\u0120Favorite": 33992,
  "zinski": 46394,
  "\u0120Authentication": 48191,
  "\u0120blot": 43182,
  "\u0120censored": 43847,
  "aucuses": 38271,
  "ued": 1739,
  "wing": 5469,
  "\u0120cooler": 19346,
  "adders": 45940,
  "dict": 11600,
  "\u0120factors": 5087,
  "\u0120Early": 12556,
  "\u0120functional": 10345,
  "Defense": 27300,
  "\u0120entreprene": 11548,
  "\u0120improvements": 8561,
  "SAM": 49302,
  "\u0120Kinnikuman": 43010,
  "\u0120Candy": 24680,
  "EE": 6500,
  "\u0120integrated": 11521,
  "\u0120overwhelmingly": 21658,
  "closed": 20225,
  "gs": 14542,
  "\u0120realization": 23258,
  "\u0120transmissions": 45649,
  "\u0120forums": 14216,
  "\u0120weekends": 21511,
  "\u0120worsening": 42373,
  "ikuman": 42889,
  "\u0120playing": 2712,
  "infect": 27816,
  "\u0120sucked": 25669,
  "Jews": 47415,
  "\u0120Jord": 38317,
  "asms": 34432,
  "\u0120Deputy": 15110,
  "\u0120satisfies": 45104,
  "\u0120url": 19016,
  "kl": 41582,
  "acked": 6021,
  "\u0120entrance": 10384,
  "\u0120Column": 29201,
  "\u0120LIA": 43031,
  "\u0120Yugoslavia": 37777,
  "wn": 675,
  "\u0120Dollar": 29747,
  "\u0120make": 787,
  "olkien": 31052,
  "361": 35195,
  "\u0120Mage": 17323,
  "\u0120Rifle": 19685,
  "\u0120Force": 5221,
  "\u0120aggressive": 8361,
  "\".[": 42924,
  "\u0120affirm": 16266,
  "\u0120looted": 49575,
  "Transaction": 48720,
  "\u0120Leaf": 14697,
  "\u0120robbers": 46988,
  "\u0120disapprove": 48866,
  "\u0120Pok\u00c3\u00a9mon": 9887,
  "atra": 26066,
  "\u0120curtain": 29461,
  "\u0120feeling": 4203,
  "\u0120gr": 1036,
  "\u0120naming": 19264,
  "\u0120Freud": 33430,
  "icidal": 21488,
  "\u0120shaped": 14292,
  "utm": 26841,
  "\u0120penchant": 41773,
  "\u0120_": 4808,
  "\u0120HOW": 29630,
  "esm": 45798,
  "442": 39506,
  "letters": 15653,
  "\u0120retribution": 40788,
  "VERTISEMENT": 18679,
  "\u0120tame": 37812,
  "Sort": 42758,
  "\u0120blond": 32749,
  "\u0120tools": 4899,
  "\u0120French": 4141,
  "DH": 41473,
  "\u0120boutique": 45753,
  "\u0120capable": 6007,
  "Hel": 12621,
  "\u0120vibe": 27426,
  "\u0120design": 1486,
  "','": 41707,
  "\u0120blow": 6611,
  "strap": 26418,
  "itals": 8321,
  "\u0120Abbey": 33128,
  "\u0120contributions": 9284,
  "alien": 42690,
  "508": 33042,
  "express": 42712,
  "orb": 27688,
  "etting": 35463,
  "img": 9600,
  "serving": 31293,
  "Listener": 33252,
  "Sat": 20245,
  "shed": 35762,
  "\u00e0\u00a4": 11976,
  "\u0120Enemies": 24364,
  "\u0120Germ": 14164,
  "Abstract": 23839,
  "\u0120Joint": 16798,
  "\u0120Protein": 31702,
  "Dou": 40287,
  "\u0120........": 20004,
  "\u0120autism": 15998,
  "\u0120condu": 36118,
  "\u0120contrast": 6273,
  "Back": 7282,
  "\u0120drowned": 30859,
  "\u0120finance": 9604,
  "\u0120scrimmage": 39325,
  "\u0120\"-": 27444,
  "kernel": 33885,
  "\u0120sixteen": 27913,
  "\u0120vanquished": 49171,
  "female": 24724,
  "classified": 31691,
  "\u0120Dirt": 49124,
  "\u0120campaigns": 9964,
  "\u0120medication": 14103,
  "\u0120Electronics": 27828,
  "auc": 14272,
  "\u0120guilty": 6717,
  "anthrop": 22178,
  "\u0120Yong": 40633,
  "bind": 21653,
  "\u0120report": 989,
  "\u0120queer": 24506,
  "\u0120varieties": 20328,
  "\u0120Synt": 26375,
  "du": 646,
  "\u0120God": 1793,
  "\u0120station": 4429,
  "0000000000000000": 25645,
  "145": 18781,
  "627": 49856,
  "\u0120Innocent": 44778,
  "\u0120employment": 7184,
  "\u0120String": 10903,
  "\u0120pouch": 36594,
  "Foot": 17574,
  "boat": 24482,
  "\u0120explode": 22818,
  "\u0120Console": 24371,
  "ccess": 1591,
  "\u0120dwell": 14046,
  "\u0120keywords": 26286,
  "\u0120Acid": 27066,
  "\u0120syll": 27226,
  "olar": 6192,
  "\u0120useful": 4465,
  "\u0120textual": 40577,
  "\u0120mosquit": 33373,
  "\u0120GitHub": 21722,
  "\u0120favor": 2661,
  "135": 17059,
  "\u0120incumb": 19742,
  "\u0120Meadow": 43868,
  "\u0120replacements": 36205,
  "uddle": 24500,
  "J": 41,
  "\u0120mold": 15936,
  "1986": 28054,
  "broken": 25826,
  "assment": 45312,
  "\u0120notorious": 18192,
  "zsche": 37467,
  "French": 24111,
  "\u0120English": 3594,
  "\u0120ah": 29042,
  "\u0120mc": 36650,
  "\u0120overhead": 16965,
  "\u0120GMO": 35945,
  "\u0120broadcast": 7025,
  "reys": 46703,
  "\u0120Dollars": 45792,
  "Edited": 45882,
  "\u0120Sites": 37034,
  "professional": 33163,
  "Cert": 37608,
  "Christian": 20298,
  "Finding": 36276,
  "color": 8043,
  "Pok\u00c3\u00a9mon": 46602,
  "\u0120bushes": 37413,
  "\u0120disproportionate": 30982,
  "\u0120identifying": 13720,
  "\u0120Lynd": 33561,
  "ick": 624,
  "ilipp": 8908,
  "vidia": 21744,
  "Govern": 29168,
  "\u0120modeling": 21128,
  "\u0120hike": 18390,
  "\u0120rests": 24013,
  "\u0120rocked": 36872,
  "locks": 28860,
  "\u0120subdued": 38759,
  "\u0120sear": 9622,
  "WN": 29767,
  "\u0120constitution": 11784,
  "\u0120getting": 1972,
  "UFC": 44534,
  "\u0120Manila": 31721,
  "\u0120legislatures": 38081,
  "Oh": 5812,
  "\u0120clearing": 17304,
  "\u0120UNC": 39151,
  "phi": 34846,
  "\u0120Kod": 32701,
  "\u00e3\u0124\u00bc": 30432,
  "\u0120Changes": 19179,
  "funding": 25032,
  "\u0120weap": 2432,
  "\u0120seasonal": 21819,
  "\u0120senators": 15469,
  "Earth": 22840,
  "ONDON": 47383,
  "<<": 16791,
  "\u0120Victory": 21203,
  "\u0120withdrawing": 36395,
  "\u0120wounded": 10657,
  "\u00e6\u00a9": 43897,
  "\u0120equality": 10537,
  "itol": 11650,
  "\u0120viewed": 9569,
  "!": 0,
  "133": 16945,
  "aspers": 49412,
  "\u0120lum": 46390,
  "\u0120transmitted": 18307,
  "\u0120March": 2805,
  "\u0120Mens": 43103,
  "\u0120covering": 9505,
  "\u0120welding": 47973,
  "\u0120introduced": 5495,
  "\u0120MBA": 45517,
  "Const": 34184,
  "geoning": 31614,
  "\u0120CBI": 47970,
  "\u0120Cafe": 26965,
  "\u0120outputs": 23862,
  "\u0120\u00c2\u00a9": 10673,
  "appropriate": 13335,
  "hematic": 23380,
  "\u0120Neo": 21227,
  "\u0120dropping": 12047,
  "\u0120humming": 41465,
  "\u0120Kl": 14770,
  "fe": 5036,
  "cap": 11128,
  "\u0120delusion": 40969,
  "\u0120det": 1062,
  "\u0120retrieved": 29517,
  "\u0120Socialism": 40407,
  "\u0120cute": 13779,
  "\u0120Assuming": 33238,
  "hari": 49573,
  "\u0120beneath": 11061,
  "\u0120Judith": 39987,
  "\u0120elimination": 21472,
  "\u0120slain": 27029,
  "\u01201914": 26833,
  "\u0120Pretty": 20090,
  "\u0120Season": 7369,
  "\u0120Ez": 21034,
  "amba": 31842,
  "\u0120Sanctuary": 27036,
  "\u0120died": 3724,
  "\u0120ejac": 39426,
  "Adult": 42995,
  "braska": 17088,
  "ocard": 44412,
  "\u0120GPS": 15472,
  "\u0120markedly": 36841,
  "------------------------------------------------": 47232,
  "oil": 9437,
  "\u0120Tolkien": 32447,
  "\u0120Industrial": 19034,
  "\u0120TAM": 33112,
  "362": 35667,
  "598": 41292,
  "\u0120heat": 4894,
  "\u0120theat": 23776,
  "\u0120applying": 11524,
  "\u0120radically": 25330,
  "\u0120therapies": 29596,
  "\u013f": 251,
  "\u0120WHO": 19494,
  "Connell": 15559,
  "\u0120CW": 24006,
  "amo": 18811,
  "\u0120Notice": 17641,
  "lace": 27077,
  "oise": 25678,
  "\u0120Gian": 30851,
  "\u0120Won": 23306,
  "\u0120Pavel": 49612,
  "keyes": 43174,
  "requent": 46018,
  "Simon": 35475,
  "\u0120Barclays": 37985,
  "2013": 6390,
  "\u0120Decay": 39087,
  "\u0120indie": 19907,
  "\u0120noodles": 31103,
  "\u0120sanction": 18830,
  "\u0120soldiers": 5795,
  "\u0120warfare": 15611,
  "\u0120Og": 25686,
  "\u0120landlords": 30658,
  "\u0120~/.": 39763,
  "\u0120screening": 14135,
  "\u0120brittle": 49307,
  "\u0120flick": 26810,
  "\u0120Kor": 14769,
  "lime": 27299,
  "stand": 1481,
  "\u0120earthly": 39892,
  "\u0120inherently": 20108,
  "\u0120beams": 26741,
  "\u0120Mou": 49902,
  "\u0120Vital": 28476,
  "\u0120Leslie": 26909,
  "\u0120bats": 19553,
  "Billy": 49640,
  "\u0120exit": 8420,
  "ickets": 15970,
  "at": 265,
  "\u0120Principle": 40921,
  "\u0120rises": 16736,
  "\u0120earnest": 23176,
  "\u0120Moss": 19935,
  "\u0120condo": 32119,
  "\u0120overall": 4045,
  "pay": 15577,
  "\u0120Consent": 46869,
  "\u0120astronomers": 33162,
  "\u0120Blades": 34776,
  "\u0120continuity": 24216,
  "\u0120sep": 41767,
  "FR": 10913,
  "y": 88,
  "155": 18742,
  "\u0120Burns": 23592,
  "\u0120Clinton": 2605,
  "\u00c2\u00ae,": 45088,
  "\u0120RAND": 46920,
  "\u0120Support": 7929,
  "\u0120Wash": 22892,
  "\u0120Match": 13225,
  "\u0120expect": 1607,
  "\u0120Cooldown": 39742,
  "\u0120flow": 5202,
  "\u0120helicop": 11727,
  "\u0120Krugman": 46311,
  "\u0120portray": 10993,
  "nova": 38438,
  "\u00e3\u0125\u00aa": 12675,
  "\u0120surrender": 16908,
  "iatus": 34704,
  "\u0120direct": 1277,
  "\u01204096": 42479,
  "\u0120Partners": 14205,
  "\u0120Warsaw": 32955,
  "soc": 35634,
  "ordable": 16819,
  "101": 8784,
  "Meat": 35620,
  "imal": 4402,
  "\u0120children": 1751,
  "\u0120elections": 7024,
  "asm": 8597,
  "cko": 37549,
  "\u0120esteem": 42213,
  "\u0120crane": 41175,
  "\u0120instinct": 13311,
  "\u0120marine": 16050,
  "oriented": 17107,
  "\u0120********************************": 41906,
  "save": 21928,
  "Sam": 16305,
  "vals": 12786,
  "Growing": 43964,
  "kind": 11031,
  "imate": 1920,
  "\u0120Clyde": 46922,
  "\u0120Maggie": 33014,
  "\u0120Sh": 911,
  "\u0120Case": 8913,
  "\u0120Petition": 43723,
  "\u0120Xen": 21173,
  "Gas": 39699,
  "\u0120onlook": 47747,
  "\u0120reached": 4251,
  "\u0120fists": 33053,
  "\u0120risky": 17564,
  "\u0120solutions": 8136,
  "\u0120d": 288,
  "ippers": 16415,
  "\u0120splend": 32394,
  "\u0120discomfort": 23597,
  "obby": 11369,
  "Prince": 35784,
  "olation": 21417,
  "\u0120Conrad": 39708,
  "\u0120retailers": 16167,
  "\u0120Yas": 25957,
  "\u0120approves": 43770,
  "\u0120Keith": 14926,
  "\u0120condos": 48093,
  "\u0120recovering": 20222,
  "\u0120cater": 20825,
  "THE": 10970,
  "PLIC": 31484,
  "\u0120deleting": 34817,
  "\u0120exerted": 48322,
  "mobile": 24896,
  "DOWN": 41925,
  "\u0120Cove": 39534,
  "YouTube": 33869,
  "\u0120Properties": 24946,
  "primary": 39754,
  "\u0120narratives": 26274,
  "\u0120inexpl": 33199,
  "Mem": 13579,
  "non": 13159,
  "\u0120Gon": 35371,
  "pport": 4926,
  "\u0120secession": 43314,
  "civil": 37636,
  "jing": 49940,
  "aments": 12604,
  "\u0120Plaint": 31313,
  "\u0120beautiful": 4950,
  "\u0120kernels": 50207,
  "\u0120traveler": 40168,
  "\u0120trigger": 7616,
  "anton": 23026,
  "playing": 17916,
  "\u0120closer": 5699,
  "\u0120Grimes": 49462,
  "\u0120IF": 16876,
  "urity": 1684,
  "ampires": 27933,
  "ires": 2387,
  "\u0120Elev": 37881,
  "\u0120Melt": 39853,
  "ando": 25440,
  "\u0120ecological": 25047,
  "\u0120gar": 5482,
  "\u0120aggreg": 13262,
  "\u0120Nor": 5414,
  "nv": 48005,
  "oder": 12342,
  "\u0120understandably": 36250,
  "\u0120voic": 40268,
  "fg": 40616,
  "Tips": 43368,
  "Are": 8491,
  "USD": 29072,
  "isks": 36730,
  "ho": 8873,
  "uating": 11927,
  "\u0120Analyst": 44600,
  "\u0120Hannah": 26013,
  "\u0120Nielsen": 31154,
  "anye": 23495,
  "\u00e3\u0125\u00af": 25589,
  "\u0120BlackBerry": 30845,
  "\u0120Nigeria": 19398,
  "HD": 10227,
  "--": 438,
  "lov": 27086,
  "\u0120Pep": 24226,
  "\u0120RE": 4526,
  "\u0120Travis": 19804,
  "\u0120Vin": 11820,
  "\u0120blank": 9178,
  "Republican": 25777,
  "\u0120cautiously": 39640,
  "it\u00c3\u00a9": 43816,
  "\u0120INC": 19387,
  "dj": 28241,
  "\u0120Miz": 29975,
  "\u0120confront": 7239,
  "\u0120Chester": 26943,
  "\u0120goes": 2925,
  "\u0120harbor": 25451,
  "\u0120luc": 17115,
  "oggles": 48549,
  "\u0120Pebble": 46041,
  "\u0120Fet": 44649,
  "\u0120narrow": 7135,
  "\u00e4\u00ba\u00ba": 21689,
  "\u0120archives": 22415,
  "\u0120reconc": 19331,
  "agle": 19345,
  "aved": 9586,
  "(_": 28264,
  "apo": 41817,
  "Executive": 43885,
  "anos": 40015,
  "celona": 14308,
  "erald": 12573,
  "safety": 44708,
  "attle": 1999,
  "\u0120Carroll": 21298,
  "\u0120Maxim": 38962,
  "bor": 2865,
  "\u0120Terms": 17637,
  "\u0120bare": 6247,
  "\u0120districts": 12815,
  "\u0120Acer": 49606,
  "Optional": 30719,
  "\u0120hardcore": 22823,
  "\u0120impending": 27523,
  "\u0120pra": 7201,
  "emporary": 33080,
  "\u0120ants": 27842,
  "\u0120Bucks": 29751,
  "\u0120CIS": 36159,
  "\u0120soup": 17141,
  "addy": 13218,
  "chieve": 24957,
  "\u0120lives": 3160,
  "\u0120staying": 10589,
  "\u0120stret": 5759,
  "\u0135\u013a": 23596,
  "UNE": 41884,
  "ever": 964,
  "Dar": 32708,
  "uru": 14717,
  "\u0120reserves": 14072,
  "\u0120semblance": 45960,
  "\u0120tablespoons": 30064,
  "\u0120Kimmel": 46552,
  "\u0120warrant": 8084,
  "aters": 8605,
  "\u0120inaction": 44376,
  "\u0120psychologically": 39705,
  "\u0120prostitution": 22679,
  "\u0120resonate": 41523,
  "\u0120Society": 7023,
  "\u0120curtail": 45962,
  "\u0120shaky": 35335,
  "missing": 45688,
  "Cra": 33800,
  "\u0120wound": 11699,
  "\u0120slowly": 6364,
  "smanship": 49820,
  "phen": 31024,
  "\u0120408": 41247,
  "usher": 34055,
  "\u0120centralized": 29024,
  "\u0120dudes": 34578,
  "\u0120missiles": 12798,
  "\u0120slammed": 21376,
  "\u0120unfairly": 30750,
  "\u0120fourteen": 29167,
  "\u0120Managing": 37108,
  "\u0120carn": 18466,
  "\");": 15341,
  "\u0120Ar": 943,
  "orange": 43745,
  "\u0120Bench": 25187,
  "\u0120Mecca": 35247,
  "\u0120loans": 10021,
  "paced": 32416,
  "rencies": 14038,
  "\u0120rocky": 26898,
  "]]": 11907,
  "apple": 18040,
  "but": 4360,
  "\u0120owners": 4393,
  "\u0120nostalg": 22314,
  "\u0120bedroom": 14043,
  "\u0120declaration": 14305,
  "\u0120nothing": 2147,
  "\u0120tigers": 43114,
  "%-": 33963,
  "\u0120Samuel": 17100,
  "\u0120Sioux": 37903,
  "\u0120colonel": 46969,
  "eddy": 21874,
  "eds": 5379,
  "\u0120Nur": 49281,
  "\u0120improper": 18992,
  "FO": 6080,
  "\u0120shun": 32814,
  "episode": 38668,
  "980": 40022,
  "Bottom": 34104,
  "Jay": 30568,
  "\u0120Chief": 5953,
  "\u0120Lys": 46749,
  "\u0120david": 21970,
  "\u0120newer": 15064,
  "lication": 10142,
  "\u0120territ": 5771,
  "\u0120Admiral": 24646,
  "\u0120influenced": 12824,
  "\u0120Appears": 31254,
  "\u0120Community": 8108,
  "TT": 15751,
  "\u0120docs": 34165,
  "\u0120od": 16298,
  "\u0120benchmark": 18335,
  "\u0120GS": 26681,
  "\u0120Eug": 20665,
  "\u0120Spr": 5522,
  "\u0120503": 44541,
  "~~~~~~~~~~~~~~~~": 27156,
  "\u0120Creatures": 34539,
  "OS": 2640,
  "\u0120Maryland": 10769,
  "\u0120raged": 49000,
  "Wikipedia": 48845,
  "osal": 40725,
  "\u0120offseason": 16349,
  "gew": 39909,
  "\u0120Bunny": 28683,
  "easy": 38171,
  "\u0120airline": 18091,
  "Stage": 29391,
  "\u0120Kits": 40297,
  "\u0120bigotry": 28849,
  "\u0120choosing": 11236,
  "esthes": 29678,
  "\u0120Brennan": 26577,
  "\u0120tweaking": 39272,
  "agus": 31111,
  "\u0120Forestry": 45413,
  "\u0120Infect": 26065,
  "\u0120theorist": 46410,
  "\u0120Said": 23885,
  "\u0120bron": 18443,
  "\u0120conspir": 29099,
  "\u0120conducted": 5952,
  "Gaza": 48790,
  "orters": 3816,
  "\u0120burial": 23867,
  "\u0120Samoa": 43663,
  "NER": 21479,
  "\u0120massage": 26900,
  "?!": 12248,
  "SH": 9693,
  "aird": 41620,
  "\u0120Bret": 39420,
  "\u0120defensive": 6110,
  "Sources": 21188,
  "\u0120penalty": 7389,
  "\u0120proletarian": 47393,
  "\u0120soon": 2582,
  "\u0120Beyond": 12197,
  "\u0120Ginny": 37877,
  "\u0120Timber": 27893,
  "\u0120\u00e2\u013e": 14519,
  "\u0120Hin": 29094,
  "dragon": 14844,
  "\u0120invest": 1325,
  "\u0120triangular": 46963,
  "\u0120kale": 43497,
  "\u0120prepare": 8335,
  "\u0120DirectX": 37017,
  "cised": 37168,
  "Keefe": 48122,
  "lish": 1836,
  "\u0120matchups": 32033,
  "\u0120shouldn": 6584,
  "\u0120spiders": 26120,
  "\u0120Chap": 15954,
  "\u0120activates": 36206,
  "\u0120Location": 13397,
  "1959": 45403,
  "inventory": 24807,
  "\u0120altern": 3983,
  "%),": 15920,
  "\u0120Sacrifice": 42036,
  "\u0120esoteric": 44894,
  "\u0120acquire": 12831,
  "\u0120SOLD": 48671,
  "\u0120chuckled": 39889,
  "thanks": 27547,
  "\u0120cooperative": 22849,
  "\u0120freedom": 4925,
  "\u0120Barbar": 45952,
  "\u0120Bengals": 24037,
  "unk": 2954,
  "Cu": 46141,
  "\u0120Albania": 44615,
  "\u0120banana": 25996,
  "\u0120Accountability": 37159,
  "\u0120Abram": 39631,
  "\u0120Cec": 23367,
  "\u0120Byte": 30589,
  "\u0120NOR": 25273,
  "\u0120consultants": 29597,
  "backs": 10146,
  "\u0120gay": 5650,
  "\u0120stranger": 16195,
  "%%%%": 36917,
  "\u0120stronghold": 32753,
  "\u0120Sending": 32038,
  "\u0120tant": 24246,
  ")\",": 42501,
  "::::::::": 43661,
  "Pitt": 47627,
  "answered": 31966,
  "rogens": 48686,
  "lished": 2115,
  "\u01202017": 2177,
  "\u0120RIS": 45698,
  "\u0120Rack": 37927,
  "\u0120Shape": 25959,
  "\u0120Tol": 20054,
  "\u0120adjud": 33719,
  "\u0120Ends": 46756,
  "\u0120Term": 35118,
  "inel": 20538,
  "\u0120Transform": 26981,
  "\u0120laying": 16299,
  "Luke": 30730,
  "tie": 36224,
  "\u0120exhausting": 39663,
  "\u0120suits": 14803,
  "\u0120\u00cf": 18074,
  "ynasty": 19488,
  "\u00d0\u00b0": 16142,
  "batch": 43501,
  "\u0120alternatively": 46596,
  "\u0120())": 32865,
  "Wonder": 42337,
  "\u0120guard": 4860,
  "\u0120vertex": 37423,
  "Constructed": 25207,
  "vy": 7670,
  "\u0120vulnerability": 15131,
  "\u0120pitted": 46852,
  "learning": 40684,
  "crafted": 39160,
  "Gall": 37122,
  "Ward": 49021,
  "odo": 24313,
  "\u0120additions": 19885,
  "\u0120publicity": 19403,
  "\u0120scant": 35183,
  "\u0120detail": 3703,
  "IF": 5064,
  "\u0120extreme": 3257,
  "\u0120Corbyn": 15673,
  "\u01202011": 2813,
  "\u0120affair": 14669,
  "\u0120due": 2233,
  "\u0120sclerosis": 46225,
  "\u0120Curt": 19569,
  "Hor": 27991,
  "\u0120mitochondrial": 32873,
  "\u0120Typ": 17134,
  "\u0120winding": 28967,
  "\u0120detrimental": 29417,
  "\u0120Witnesses": 35165,
  "\u0120innovate": 47916,
  "\u0120Tutorial": 36361,
  "DD": 16458,
  "\u0120early": 1903,
  "\u0120Slay": 46809,
  "\u0120Wide": 23399,
  "pired": 6474,
  "\u0120come": 1282,
  "\u0120culmin": 24642,
  "\u0120floods": 27283,
  "\u0120sly": 49822,
  "ipient": 48137,
  "\u0120Kuala": 48880,
  "\u0120erroneous": 35366,
  "\u0120potentially": 6196,
  "\u0120CPU": 9135,
  "DJ": 35028,
  "Sur": 14214,
  "pert": 11766,
  "\u0120Body": 12290,
  "\u0120Pand": 16492,
  "\u0120splash": 22870,
  "\u0120Via": 33356,
  "\u0120Lamar": 26907,
  "\u0120].": 20740,
  ".(": 12195,
  "\u0120unusual": 8468,
  "\u0120Nigel": 28772,
  "\u0120Wonders": 47497,
  "\u0120BJP": 18317,
  "\u0120Lub": 40753,
  "CRIPTION": 40165,
  "fill": 20797,
  "Resp": 19309,
  "ThumbnailImage": 39142,
  "struct": 7249,
  "uberty": 34237,
  "\u0120Introduction": 22395,
  "\u0120finely": 32566,
  "artments": 32514,
  "\u0120Media": 6343,
  "\u0120accompanying": 19249,
  "\u0120delivering": 13630,
  "ashes": 7465,
  "\u0120harming": 37871,
  "\u0120Item": 9097,
  "\u0120Giants": 12056,
  "\u0120curiously": 43211,
  "\u0120populace": 39003,
  "ierce": 9798,
  "\u0120Gallagher": 38580,
  "oon": 2049,
  "Today": 8888,
  "queue": 36560,
  "\u0120Hover": 38452,
  "atana": 43777,
  "ht": 4352,
  "roy": 3287,
  "\u0120condemn": 15402,
  "\u0120destinations": 23982,
  "\u0120hyd": 7409,
  "\u0120pleasure": 9476,
  "\u0120prince": 19716,
  "law": 6270,
  "\u0120sediment": 33408,
  "\u0120productivity": 13714,
  "izards": 14124,
  "internet": 37675,
  "\u0120Road": 5567,
  "\u0120Hughes": 19712,
  "\u0120shake": 13279,
  "\u0120den": 2853,
  "\u0120ja": 45091,
  "de": 2934,
  "\u0120Lindsay": 33127,
  "odynamic": 34743,
  "\u0120pad": 14841,
  "rg": 41345,
  "\u0120Glacier": 49120,
  "\u0120Meaning": 30563,
  "\u0120Parade": 33197,
  "Americ": 5477,
  "\u0120believing": 14773,
  "\u0120Publishing": 23499,
  "\u0120posts": 6851,
  "\u0120contests": 22830,
  "piration": 10514,
  "Rum": 47127,
  "etically": 16877,
  "\u0120pregnancies": 33593,
  "ctx": 49464,
  "\u0120assigned": 8686,
  "\u0120freely": 12748,
  "\u0120unregulated": 47289,
  "IDA": 41957,
  "\u0120ministers": 14138,
  "Taking": 26556,
  "\u0120razor": 26811,
  "externalActionCode": 31576,
  "ributed": 6169,
  "\u0120MIN": 20625,
  "\u0120CK": 45233,
  "\u0120Mile": 26004,
  "hero": 11718,
  "value": 8367,
  "gettable": 42182,
  "vers": 690,
  "\u0120FDR": 47700,
  "rolog": 40329,
  "\u0120harb": 43560,
  "\u0120participated": 14888,
  "\u0120presum": 9227,
  "\u0120resurg": 33316,
  "\u00b2": 110,
  "\u0120roadmap": 40332,
  "\u0120root": 6808,
  "\u0120shooters": 26191,
  "\u0120stocking": 49774,
  "\u0120tmp": 45218,
  "\u0120\u00ef\u00bf\u00bd\u00ef\u00bf\u00bd\u00ef\u00bf\u00bd\u00ef\u00bf\u00bd\u00ef\u00bf\u00bd\u00ef\u00bf\u00bd\u00ef\u00bf\u00bd\u00ef\u00bf\u00bd": 37389,
  "Egypt": 39299,
  "YR": 38162,
  "acity": 4355,
  "rait": 12907,
  "destroy": 41659,
  "hattan": 12904,
  "Spirit": 41910,
  "PR": 4805,
  "\u0120Lange": 47579,
  "\u0120Monday": 3321,
  "\u0120Urug": 31021,
  "\u0120Kinder": 46832,
  "\u0120asks": 7893,
  "\u0120chicks": 43803,
  "\u0120Sever": 26434,
  "\u0120Hmm": 43352,
  "\u0120Gorge": 48420,
  "redit": 7470,
  "odies": 5042,
  "\u0120Ware": 28593,
  "Evidence": 46785,
  "14": 1415,
  "Py": 20519,
  "rb": 26145,
  "uld": 32926,
  "\u0120Learning": 18252,
  "\u0120binaries": 38640,
  "neau": 46533,
  "\u0120Egg": 14562,
  "\u0120Passage": 46169,
  "buquerque": 36461,
  "Department": 36261,
  "ul": 377,
  "Duration": 26054,
  "\u0120achie": 3302,
  "\u0120Ci": 37685,
  "ractive": 35587,
  "\u0120after": 706,
  "470": 27790,
  "\u0120Rings": 26028,
  "\u0120carrying": 6872,
  "\u0120expansions": 36383,
  "\u0120hypocritical": 45259,
  "\u0120lev": 23145,
  "\u0120note": 3465,
  "\u00bd": 121,
  "\u0120recognized": 8018,
  "berman": 34591,
  "\u0120athletics": 35691,
  "imon": 20473,
  "\u0120Counter": 15034,
  "\u0120repercussions": 34056,
  "\u0120hiring": 12965,
  "\u0120roy": 10611,
  "\u0120lodge": 35362,
  "\u0120li": 7649,
  "\u0120demonstr": 4110,
  "\u0120diverse": 10084,
  "\u0120fuels": 18017,
  "\u0120picnic": 35715,
  "\u0120rainy": 37259,
  "iership": 36689,
  "ategories": 26129,
  "\u0120freeway": 39042,
  "\u0120depress": 41447,
  "APD": 35349,
  "\u0120reading": 3555,
  "\u0120realized": 6939,
  "\u0120980": 32614,
  "\u0120Khal": 30126,
  "\u0120Monkey": 26997,
  "\u0120attack": 1368,
  "\u0120Crime": 10003,
  "\u0120scramble": 36755,
  "\u0120HIV": 10498,
  "catching": 50106,
  "circle": 45597,
  "needed": 27938,
  "\u0120forgiveness": 26027,
  "\u0120soar": 48701,
  "\u0120subtract": 34128,
  "\u0120telescopes": 42067,
  "\u0120topical": 39867,
  "Alright": 31442,
  "\u0120CBS": 11133,
  "\u0120reb": 3405,
  "\u0120suspicious": 13678,
  "\u0120united": 16503,
  "rd": 4372,
  "\u0120unrealistic": 31363,
  "then": 8524,
  "\u01201909": 41507,
  "\u00a3\u0131": 6408,
  "\u0120cans": 23916,
  "atton": 38680,
  "\u0120Studio": 11733,
  "\u0120privatization": 41110,
  "port": 634,
  "\u0120terrified": 22144,
  "anson": 23103,
  "righteous": 49955,
  "\u0120EX": 7788,
  "\u00c3\u0125\u00c3\u0124\u00c3\u0125\u00c3\u0124": 5815,
  "\u0120Geological": 34246,
  "\u0120implicit": 16992,
  "\u0120normal": 3487,
  "People": 8061,
  "\u0120mango": 49364,
  "\u0120ni": 37628,
  "\u0120waits": 28364,
  "\u0120explan": 6166,
  "they": 9930,
  "\u0120Ni\u00c3\u00b1o": 47931,
  "\u0120Airport": 12690,
  "756": 38219,
  "Civil": 32610,
  "Mars": 43725,
  "\u0120Isis": 16530,
  "\u0120OCT": 42256,
  "Registration": 47133,
  "ivas": 38630,
  "ocate": 13369,
  "\u0120Connection": 26923,
  "\u0120Fore": 4558,
  "\u0120Telephone": 44735,
  "NSA": 47549,
  "\u0120Yar": 45184,
  "\u0120adventurers": 36843,
  "\u0120conflicting": 24916,
  "\u0120nipple": 45915,
  "\u0120experienced": 5924,
  "\u0120damaging": 14790,
  "ITT": 22470,
  "\u0120Gim": 41123,
  "\u0120Memory": 14059,
  "grid": 25928,
  "\u0120RGB": 25228,
  "\u0120ensl": 25563,
  "opher": 8803,
  "\u0120happy": 3772,
  "\u0120presumed": 25751,
  "\u0120robotic": 25810,
  "\u0120therefore": 4361,
  "ortment": 33920,
  "oteric": 38571,
  "\u0120Can": 1680,
  "\u00e6\u012a": 22755,
  "\u0120Forums": 38592,
  "\u0120fetish": 32870,
  "\u0120fungi": 38467,
  "\u0120bureaucracy": 25250,
  "entious": 43787,
  "\u0120NAACP": 39829,
  "\u0120reckless": 22053,
  "\u0120spitting": 46266,
  "OTOS": 33291,
  "================================================================": 23926,
  "\u0120viability": 32141,
  "\u0120compuls": 27954,
  "bare": 49382,
  "eyes": 48418,
  "Match": 23850,
  "ices": 1063,
  "Kn": 25095,
  "porter": 26634,
  "\u0120Supplement": 23150,
  "\u0120comparative": 29270,
  "\u0120examinations": 37305,
  "\u0120implement": 3494,
  "\u0120strat": 25369,
  "GET": 18851,
  "tw": 4246,
  "\u0120rotation": 13179,
  "\u0120Jos": 22568,
  "hazard": 37598,
  "ftime": 31387,
  "Cam": 21701,
  "env": 24330,
  "igun": 50118,
  "ravis": 16956,
  "790": 37750,
  "\u0120Shy": 36838,
  "\u0120Dawson": 32801,
  "iciary": 13556,
  "senal": 10298,
  "\u0120Alam": 41514,
  "\u0120Map": 9347,
  "icago": 4549,
  "\u0120Rico": 16707,
  "\u0120Syn": 16065,
  "\u0120Wald": 24261,
  "\u0120boycot": 46878,
  "\u0120StarCraft": 38460,
  "222": 23148,
  "\u0120Twelve": 30775,
  "\u0120forbidden": 19467,
  "\u0120hordes": 41872,
  "\u0120Paw": 35553,
  "ill": 359,
  "mable": 44102,
  "\u0120EN": 12964,
  "\u0120Ascension": 41416,
  "\u0120Razer": 47890,
  "\u0120oppos": 38642,
  "\u0120safest": 33630,
  "\u0120\u00e2\u013b": 20724,
  "gold": 24267,
  "utf": 40477,
  "UTION": 35354,
  "Mouse": 39643,
  "stick": 13915,
  "\u0120Evan": 21523,
  "\u0120Cricket": 34761,
  "\u0120loyal": 9112,
  "rett": 11489,
  "\u0120sorrow": 24140,
  "hound": 39047,
  "\u012007": 8753,
  "\u0120intellect": 7654,
  "CP": 8697,
  "Pay": 19197,
  "rozen": 42005,
  "\u0120congressman": 29545,
  "\u0120JOHN": 39263,
  "\u0120cuts": 6630,
  "\u0120ASCII": 37101,
  "\u0120difference": 3580,
  "rities": 19491,
  "\u0120football": 4346,
  "\u0120plag": 19640,
  "surv": 48846,
  "\u0120Orbital": 45453,
  "\u0120Legal": 16027,
  "\u0120shortfall": 41688,
  "Compl": 38143,
  "accessible": 33780,
  "\u0120Negro": 27115,
  "\u0120indicative": 29105,
  "\u00c2\u00bb": 17730,
  "\u0120131": 23134,
  "\u0120Occupy": 25551,
  "\u0120boarding": 25523,
  "\u0120handle": 5412,
  "thood": 12951,
  "oliath": 43009,
  "\u0120instrument": 8875,
  "\u0120majesty": 48565,
  "\u0120cursed": 25155,
  "EPA": 40906,
  "\u0120insofar": 44061,
  "\u0120Adds": 34333,
  "raz": 3247,
  "alf": 1604,
  "\u0120Armory": 45388,
  "\u0120Iron": 7931,
  "\u0120popping": 26324,
  "Abs": 24849,
  "\u0120Playing": 23911,
  "\u0120removes": 20694,
  "\u0120renovated": 46353,
  "\u0120troopers": 38817,
  "\u0120tweeted": 10830,
  "\u0120Fiji": 43676,
  "\u0120additives": 48348,
  "RR": 21095,
  "\u0120Migration": 36991,
  "\u0120Black": 2619,
  "\u0120wrestler": 34845,
  "rule": 25135,
  "uyomi": 40012,
  "\u0120younger": 7099,
  "\u0120Albert": 9966,
  "\u0120biomass": 42584,
  "\u0120saddle": 33083,
  "\u0120Stone": 8026,
  "annels": 8961,
  "\u0120CB": 10078,
  "\u0120foray": 47773,
  "\u0120vim": 43907,
  "Null": 35067,
  "rued": 21556,
  "\u0120designer": 11915,
  "\u0120protective": 14153,
  "\u0120Enough": 31779,
  "\u0120realise": 18996,
  "95": 3865,
  "\u0120Constantine": 44665,
  "\u0120dart": 35970,
  "\u0120established": 4920,
  "girls": 36960,
  "oland": 23573,
  "\u0120Lights": 22661,
  "\u0120enlisted": 30166,
  "\u0120again": 757,
  "\u0120exclusively": 11541,
  "\u0120Between": 14307,
  "\u0120Morton": 35766,
  "\u0120warmer": 23254,
  "\u0120booted": 48696,
  "arel": 20318,
  "Cmd": 40109,
  "\u0120Provider": 32549,
  "\u0120observers": 17984,
  "\u0120choice": 3572,
  "\u0120Money": 12911,
  "\u012025": 1679,
  "\u0120antidepressants": 41587,
  "soDeliveryDate": 39811,
  "\u0120til": 21502,
  "Phase": 35645,
  "efe": 22521,
  "aido": 44354,
  "\u0120premier": 18256,
  "ATED": 11617,
  ")/": 20679,
  "\u0120Helpful": 21656,
  "\u0120sincerely": 29093,
  "\u0120branches": 13737,
  "\u0120topped": 20633,
  "\u0120natives": 30962,
  "\u0120wellbeing": 40013,
  "\u0120Blank": 31990,
  "\u0120dissent": 17873,
  "\u0120ridiculous": 11441,
  "ari": 2743,
  "Technology": 44893,
  "kai": 32765,
  "\u0120Lego": 33198,
  "\u0120Place": 8474,
  "utory": 17957,
  "\u0120Cham": 37790,
  "\u0120Producer": 30436,
  "\u0120Levin": 32325,
  "\u0120Pressure": 30980,
  "\u0120cyclist": 34632,
  "\u0120Gaming": 14426,
  "opot": 43372,
  "\u0120genesis": 48861,
  "\u0120provision": 8287,
  "\u0120Veg": 8427,
  "\u0120raspberry": 38973,
  "\u0120signing": 8415,
  "\u0120waited": 13488,
  "\u0120fifty": 15334,
  "\u0120histories": 25985,
  "\u0120flaming": 39518,
  "cess": 919,
  "oppers": 37186,
  "\u0120Monteneg": 50008,
  "\u0120selling": 6301,
  "\u0120tales": 19490,
  "\u0120authorised": 39019,
  "\u0120Chim": 28466,
  "ITS": 29722,
  "\u0120completing": 14339,
  "\u0120Miami": 8437,
  "eous": 15303,
  "\u0120Time": 3862,
  "elcome": 9571,
  "\u0120Butt": 36041,
  "\u0120rog": 47524,
  "ately": 1286,
  "\u0120Styles": 44963,
  "\u0120crypto": 21473,
  "\u00e2\u013f": 32391,
  "Cor": 10606,
  "\u0120Farm": 11272,
  "pire": 5111,
  "\u0120vacated": 46346,
  "ording": 1284,
  "\u0120Nunes": 42502,
  "\u0120Scholar": 11713,
  "\u0120Vegeta": 42867,
  "\u0120unbeaten": 48798,
  "\u0120documents": 4963,
  "\u0135": 241,
  "uzz": 4715,
  "\u0120scent": 21212,
  "oslov": 50005,
  "\u0120arresting": 33936,
  "amber": 7789,
  "ott": 1252,
  "\u0120reporters": 7638,
  "ere": 567,
  "rench": 3532,
  "\u0120complicate": 45058,
  "\u00c4": 128,
  "');": 24036,
  "050": 28669,
  "\u0120passions": 30477,
  "mone": 47122,
  "\u0120prospect": 6034,
  "\u0120pref": 7694,
  "\u0120tried": 3088,
  "\u0120captains": 37551,
  "\u0120heresy": 47763,
  "\u0120Por": 20139,
  "\u0120Scholarship": 38178,
  "\u0120clust": 32966,
  "erves": 11184,
  "es": 274,
  "cul": 3129,
  "\u0120lifestyles": 43644,
  "ourse": 9047,
  "\u0120Emmy": 33953,
  "\u0120Allied": 28234,
  "distance": 30246,
  "\u0120allocation": 20157,
  "\u0120171": 28369,
  "\u0120HAS": 33930,
  "\u0120Maher": 38137,
  "\u0120Os": 8834,
  "\u0120ambulance": 22536,
  "\u0120harvesting": 34102,
  "Had": 25383,
  "\u0120Throne": 28419,
  "\u0120eaves": 42174,
  "Vision": 44206,
  "\u0120nonexistent": 42601,
  "\u0120peculiar": 19501,
  "\u0120Description": 12489,
  "\u0120allergies": 36665,
  "adapt": 42552,
  "abit": 29968,
  "ding": 12083,
  "generated": 27568,
  "pos": 1930,
  "\u0120PLA": 45838,
  "\u0120Polit": 7793,
  "double": 23352,
  "\u0120destroyed": 6572,
  "\u0120tissues": 21379,
  "\u0120article": 2708,
  "\u0120App": 2034,
  "\u0120Mali": 29599,
  "aths": 33148,
  "\u0120determined": 5295,
  "\u0120nuts": 14380,
  "aw": 707,
  "chnology": 19587,
  "\u0120limiting": 15637,
  "\u0120shutter": 31168,
  "\u0120receptor": 17408,
  "\u0120mu": 38779,
  "iless": 30608,
  "\u0120LOG": 41605,
  "\u0120Mock": 44123,
  "\u0120Ajax": 46362,
  "\u0120Spock": 37945,
  "\u0120killing": 5170,
  "Jes": 22290,
  "\u0120resur": 15328,
  "\u0120clerk": 21120,
  "\u0120pneumonia": 35647,
  "\u0120Gaw": 30187,
  "\u0120Ducks": 27622,
  "olding": 33266,
  "\u00cb\u012a": 45990,
  "\u0120Geral": 49662,
  "\u0120supreme": 17700,
  "\u0120uneasy": 34644,
  "\u0120sausage": 31889,
  "\u0120Numbers": 27797,
  "\u0120country": 1499,
  "oco": 25634,
  "2012": 6999,
  "cause": 25587,
  "acist": 20279,
  "okane": 41776,
  "tical": 22869,
  "cloth": 44905,
  "\u0120large": 1588,
  "\u0120pact": 28242,
  "\u0120Juno": 49458,
  "\u0120squads": 31477,
  "luence": 23079,
  "\u0120SPD": 30628,
  "ectar": 44504,
  "TPPStreamerBot": 37579,
  "asonable": 17994,
  "\u0120Truman": 33027,
  "\u0120comprehend": 24772,
  "\u0120professional": 4708,
  "\u0120rode": 22075,
  "\u0120excel": 27336,
  "anto": 14723,
  "\u0120jurisdiction": 12934,
  "\u0120roles": 9176,
  "IA": 3539,
  "\u0120formatting": 33313,
  "\"><": 22039,
  "mal": 7617,
  "uitive": 33740,
  "atten": 41769,
  "worms": 49617,
  "\u0120Done": 24429,
  "\u0120Mercer": 38146,
  "\u0120servant": 18807,
  "\u0120chef": 21221,
  "\u0120choked": 39283,
  "middle": 27171,
  "requisites": 34075,
  "initialized": 17532,
  "IM": 3955,
  "asi": 17053,
  "\u0120Arabian": 33081,
  "\u0120architectural": 27070,
  "\u0120plaque": 35127,
  "\u0120AL": 8355,
  "occup": 19596,
  "\u0120Adviser": 47661,
  "\u0120Company": 5834,
  "\u0120Trick": 30028,
  "\u0120Greeks": 25059,
  "\u0120Tian": 20834,
  "yah": 46848,
  "\u0120Blumenthal": 44888,
  "\u0120Dough": 48179,
  "\u0120SM": 9447,
  "\u0120Emma": 18966,
  "EAR": 17133,
  "\u01201981": 14745,
  "\u00e2\u0122\u0136\u00e2\u0122\u0136\u00e2\u0122\u0136\u00e2\u0122\u0136\u00e2\u0122\u0136\u00e2\u0122\u0136\u00e2\u0122\u0136\u00e2\u0122\u0136\u00e2\u0122\u0136\u00e2\u0122\u0136\u00e2\u0122\u0136\u00e2\u0122\u0136\u00e2\u0122\u0136\u00e2\u0122\u0136\u00e2\u0122\u0136\u00e2\u0122\u0136": 30542,
  "ierre": 31058,
  "\u0120Quadro": 48447,
  "opian": 37548,
  "\u0120commercially": 26879,
  "548": 49934,
  "\u0120STORY": 46427,
  "\u0120Fantastic": 27948,
  "233": 25429,
  "igated": 26963,
  "\u0120Puerto": 15295,
  "\u0120Tobias": 46675,
  "\u0120Mama": 40084,
  "alions": 50022,
  "border": 20192,
  "kered": 28970,
  "\u0120LLP": 43245,
  "\u0120bribes": 39926,
  "\u0120Kurd": 9778,
  "\u0120><": 28725,
  "\u0120Launcher": 26385,
  "\u0120BS": 24218,
  "\u0120Factory": 19239,
  "\u0120Nigerian": 36430,
  "\u0120exception": 6631,
  "\u0120lumin": 29763,
  "\u0120orche": 17771,
  "aring": 1723,
  "\u0120Vit": 18271,
  "TYPE": 25216,
  "\u0120Vera": 44413,
  "\u0120nominal": 26934,
  "\u0120passively": 49947,
  "\u0120Seattle": 7312,
  "\u0120Carlo": 40089,
  "athom": 32910,
  "axter": 40864,
  "orders": 6361,
  "LL": 3069,
  "\u0120conservative": 5940,
  "\u0120kin": 18967,
  "ens": 641,
  "gged": 11178,
  "\u0120rated": 13178,
  "98": 4089,
  "ottenham": 21889,
  "\u0120contestants": 37851,
  "dx": 34350,
  "ressor": 44292,
  "\u0120neighboring": 19651,
  "\u0120area": 1989,
  "\u0120Luckily": 24262,
  "support": 11284,
  "\u0120accumulation": 24106,
  "\u0120rich": 5527,
  "\u0120friction": 23822,
  "\u0120transcripts": 29351,
  "oved": 2668,
  "\u0120Array": 15690,
  "League": 24623,
  "05": 2713,
  "sudo": 24032,
  "Also": 7583,
  "\u0120Romney": 8431,
  "\u0120declares": 24183,
  "\u0120defence": 9366,
  "\u0120Casting": 39285,
  "rowd": 3986,
  "journal": 24891,
  "\u01201901": 39923,
  "\u0120Sle": 19498,
  "ultural": 8596,
  "\u0120Spart": 20711,
  "HEAD": 37682,
  "\u0120Priority": 34416,
  "\u0120colored": 16396,
  "\u0120Moves": 38213,
  "\u0120emerging": 11823,
  "Allen": 39989,
  "\u0120fixing": 18682,
  "\u0120objectionable": 48540,
  "\u0120savings": 10653,
  "\u0120tradem": 12677,
  "Frank": 17439,
  "PDATED": 49316,
  "\u0120Uran": 33287,
  "isf": 4468,
  "\u0120Josh": 8518,
  "Paul": 12041,
  "ader": 5067,
  "\u0120Milton": 30979,
  "\u0120Chel": 11425,
  "\u0120GTX": 12646,
  "\u0120assemble": 25432,
  "\u0120coefficient": 35381,
  "\u0120contractors": 17736,
  "\u0120The": 383,
  "267": 25674,
  "\u0120protecting": 10192,
  "\u0120surprisingly": 12362,
  "\u0120computer": 3644,
  "=": 28,
  "tch": 38664,
  "\u0120Club": 6289,
  "\u0120Candidate": 40327,
  "Demon": 35477,
  "STEP": 42135,
  "\u0120Kard": 37875,
  "\\\">": 38214,
  "\u0120OB": 25334,
  "student": 50139,
  "\u0120Unc": 28304,
  "\u0120Willis": 32748,
  "\u0120Pure": 17129,
  "\u0120accomplishments": 26516,
  "\u0120ascended": 44440,
  "half": 13959,
  "\u0120debt": 5057,
  "vector": 31364,
  "aeper": 28235,
  "\u0120kissed": 27946,
  "\u0120myself": 3589,
  "\u0120Loans": 33063,
  "\u0120Maid": 28454,
  "\u0120cheapest": 28918,
  "\u0120Jal": 28649,
  "\u0120ordered": 6149,
  "\u0120pressing": 12273,
  "\u0120Rai": 42954,
  "\u0120cob": 22843,
  "\u0120insights": 17218,
  "\u0120Around": 16824,
  "\u0120pubs": 46972,
  "application": 31438,
  "\u0120stern": 26370,
  "\u0120tri": 1333,
  "\u0120broadcaster": 26661,
  "\u0120timeframe": 41352,
  "\u0120prod": 40426,
  "\u0120theirs": 22021,
  "\u0120logs": 17259,
  "\u0120wart": 32943,
  "\u0120Tropical": 37956,
  "\u0120sund": 37437,
  "\u0120Ning": 37400,
  "\u0120Welsh": 22945,
  "\u0120DR": 10560,
  "\u0120levels": 2974,
  "\u0120orig": 1796,
  "\u0120preferably": 29203,
  "\u0120provoked": 29579,
  "NT": 11251,
  "\u0120frenzy": 31934,
  "label": 18242,
  "\u0120popped": 22928,
  "\u0120strengthening": 24175,
  "\u0120vandal": 26271,
  "\u0120violates": 21806,
  "\u0120neatly": 29776,
  "\u0120pert": 22146,
  "<": 27,
  "\u0120violations": 11734,
  "\u0120mixing": 17090,
  "\u0120Ports": 30824,
  "\u0120hunts": 42984,
  "\u0120Pose": 37557,
  "lass": 31172,
  "\u0120Mn": 36030,
  "\u0120flyers": 45112,
  "Xi": 42528,
  "\u0120spontaneously": 37512,
  "\u0120Tinder": 44043,
  "\u0120ath": 5782,
  "\u0120pron": 9668,
  "\u0120resurrected": 41914,
  "\u0120Bold": 27059,
  "ersed": 20204,
  "\u0120Weird": 34097,
  "\u0120decisive": 21112,
  "\u0120300": 5867,
  "\u0120integrity": 11540,
  "\u0120cities": 4736,
  "\u0120narrative": 8689,
  "\u0120nucle": 17751,
  "versive": 40099,
  "\u0120relationship": 2776,
  "\u0120aka": 22430,
  "Nich": 46489,
  "ag": 363,
  "Inside": 24441,
  "\u0120champagne": 37392,
  "\u0120stating": 12316,
  "\u0120strengthens": 49286,
  "\u0120leftists": 45224,
  "\u0120offend": 35117,
  "\u0120button": 4936,
  "\u0120Subaru": 30471,
  "157": 18458,
  "gil": 37718,
  "ocal": 4374,
  "Kick": 45390,
  "\u0120TRE": 43236,
  "\u0120diagnoses": 40567,
  "Dog": 32942,
  "\u0120CENT": 33269,
  "\u0120Edinburgh": 23475,
  "Les": 35882,
  "yy": 22556,
  "\u0120crisis": 4902,
  "Sense": 41166,
  "\u0120electron": 11538,
  "\u0120>=": 18189,
  "\u0120engulfed": 40997,
  "\u0120originals": 47324,
  "\u0120plasma": 16074,
  "\u0120proced": 5131,
  "\u0120puzzles": 24367,
  "\u0120response": 2882,
  "\u0120romantic": 14348,
  "\u0120lofty": 37248,
  "nosis": 31707,
  "\u0120Percentage": 36013,
  "\u0120butt": 8530,
  "\u0120Session": 23575,
  "\u0120collections": 17268,
  "\u0120prohibiting": 30363,
  "\u0120resistant": 18290,
  "\u0120278": 39174,
  "\u0120competitor": 20319,
  "\u0120Stephens": 37072,
  "\u0120recite": 46528,
  "ob": 672,
  "thirst": 48832,
  "\u0120Graham": 11520,
  "\u0120192": 17817,
  "\u0120Raptors": 30836,
  "\u0120passenger": 11849,
  "\u0120shelter": 11772,
  "\u0120Building": 11819,
  "Linux": 19314,
  "eas": 30412,
  "\u0120cigars": 33204,
  "\u0120slut": 33526,
  "ICES": 34444,
  "\u0120Obesity": 41936,
  "rimp": 23750,
  "Hmm": 44217,
  "ivation": 26939,
  "\u0120chased": 26172,
  "\u0120eccentric": 29303,
  "\u0120capacities": 32484,
  "Student": 38778,
  "\u0120sue": 20889,
  "\u0120tune": 14009,
  "Baltimore": 46139,
  "\u0120d\u00c3\u00a9": 39073,
  "\u0120willfully": 46857,
  "\u0120wonders": 19294,
  "\u0120seating": 24800,
  "rophe": 22599,
  "\u0120\u00e3\u0124": 17433,
  "\u0120ace": 31506,
  "\u0120dependence": 21403,
  "grey": 49502,
  "enting": 36589,
  "\u0120relation": 8695,
  "Op": 18257,
  "iqueness": 46764,
  "\u0120adolescents": 25447,
  "android": 19411,
  "\u0120screenshots": 23322,
  "\u0120jargon": 46468,
  "\u0120\u00c2\u00a7\u00c2\u00a7": 47171,
  "sharing": 21987,
  "\u0120beans": 16567,
  "\u0120hallucinations": 40371,
  "\u0120google": 23645,
  "\u0120portfolio": 15320,
  "\u0120gift": 6979,
  "success": 13138,
  "\u0120barr": 29069,
  "/*": 15211,
  "\u0120Al": 978,
  "\u0120nests": 44382,
  "ny": 3281,
  "ACK": 8120,
  "mons": 11567,
  "\u0120Mac": 4100,
  "\u0120Newport": 36538,
  "ayson": 34907,
  "ographic": 6826,
  "\u0120Sec": 1882,
  "David": 11006,
  "yard": 9413,
  "house": 4803,
  "yre": 35759,
  "\u0120Depot": 30884,
  "\u0120Gun": 6748,
  "\u0120Duc": 24165,
  "\u0120Sanchez": 21909,
  "\u0120Stat": 5133,
  "\u0120corpse": 21304,
  "\u0120gull": 43289,
  "\u0120scandal": 10731,
  "\u0120thriving": 27723,
  "Very": 16371,
  "tackle": 36346,
  "\u0120experiments": 10256,
  "\u0120transfer": 4351,
  "rid": 6058,
  "\u0120shaking": 17275,
  ".-": 7874,
  "\u0120Tactical": 26984,
  "\u0120Admission": 44025,
  "\u0120Monument": 33075,
  "\u0120indeed": 5600,
  "\u0120scenarios": 13858,
  "&&": 25226,
  "ARI": 33604,
  "walking": 44065,
  "\u0120Kanye": 27775,
  "throw": 16939,
  "mouse": 35888,
  "\u0120gold": 3869,
  "\u0120Contemporary": 38698,
  "\u0120Ste": 2441,
  "\u0120DAY": 24644,
  "\u0120FO": 11895,
  "\u00e8\u00a3\u0127": 35318,
  "\u0120Traditional": 29065,
  "\u0120cursor": 23493,
  "\u0120injected": 25077,
  "\u0120sign": 1051,
  "\u0120surf": 9053,
  "iatures": 42711,
  "Solution": 46344,
  "571": 42875,
  "Spanish": 43584,
  "\u0120Ecc": 38308,
  "\u0120GOT": 41725,
  "\u0120NHL": 9481,
  "\u0120annihilation": 49972,
  "\u0120bounds": 22303,
  "\u0120hint": 9254,
  "\u0120Innovation": 27724,
  "ited": 863,
  "rush": 37357,
  "\u0120Ear": 2905,
  "ign": 570,
  "\u0120Houston": 6995,
  "asma": 11797,
  "iche": 14234,
  "\u0120Hero": 8757,
  "\u0120RELEASE": 46492,
  "\u0120County": 3418,
  "\u0120Ty": 7039,
  "estival": 6743,
  "\u0120breathed": 39545,
  "\u0120costly": 16378,
  "\u0120jointly": 26913,
  "\u0120Actions": 24439,
  "\u0120box": 3091,
  "\u0120laughable": 47623,
  "\u00f1": 173,
  "\u0120MAD": 45878,
  "\u0120Mitch": 20472,
  "\u0120merchandise": 20813,
  "\u0120municip": 11076,
  "rup": 12618,
  "gers": 5355,
  "olphins": 16547,
  "\u0120Autom": 17406,
  "Minor": 39825,
  "radius": 42172,
  "\u0120integration": 11812,
  "ussen": 35951,
  "\u0120prevalent": 21854,
  "\u0120privacy": 6782,
  "\u0120recruiting": 16517,
  "\u0120rib": 12183,
  "\u0120rocking": 38059,
  "ceived": 6471,
  "\u0120startling": 28027,
  "issa": 13808,
  "\u0120ought": 10783,
  "\u0120senate": 34548,
  "Chest": 45170,
  "NF": 21870,
  "fortune": 37359,
  "\u0120contexts": 26307,
  "\u0120pill": 9582,
  "\u0120Britons": 43310,
  "\u0120heals": 38673,
  "\u0120puzz": 15575,
  "\u0120spans": 32727,
  "\u0120copy": 4866,
  "\u0120Guardian": 8283,
  "qs": 48382,
  "088": 46556,
  "\u0120Miy": 29464,
  "x": 87,
  "\u0120trailing": 25462,
  "\u0120snowy": 46742,
  "\u0120mobility": 15873,
  "\u00e2\u0122\u0137": 31857,
  "\u0120interesting": 3499,
  "\u0120Mutual": 48807,
  "\u0120vehement": 36284,
  "\u0120Spicer": 26242,
  "\u0120sled": 46822,
  "\u0120lav": 21606,
  "\u0120Garn": 30937,
  "\u0120eclips": 39097,
  "\u0120exhib": 7316,
  "\u0120hydro": 17173,
  "\u0120Barney": 41921,
  "mo": 5908,
  "\u0120Gate": 12816,
  "events": 31534,
  "via": 8869,
  "\u0120Reson": 44783,
  "\u0120Ubuntu": 14949,
  "\u0120Bible": 9111,
  "\u0120mashed": 49159,
  "\u0120predecessors": 27677,
  "ort": 419,
  "FFER": 45746,
  "odes": 4147,
  "ascript": 15961,
  "out": 448,
  "Represent": 40171,
  "\u0120Okay": 16805,
  "Roy": 32027,
  "\u0120attacking": 9274,
  "\u0120archae": 16713,
  "\u0120rejo": 30668,
  "\u012090": 4101,
  "\u0120Preston": 34564,
  "\u0120Dominion": 28098,
  "\u0120apply": 4174,
  "adj": 41255,
  "\u0120catering": 39211,
  "\u0120Healing": 22508,
  "\u0120Gork": 49882,
  "ribution": 3890,
  "\u0120abandonment": 38968,
  "\u0120necklace": 38987,
  "\u0120Blow": 26588,
  "\u0120narrowly": 26167,
  "\u0120subsequ": 6399,
  "\u0120nick": 14428,
  "\u0120read": 1100,
  "istical": 19929,
  "\u0120refres": 17434,
  "\u0120commence": 23038,
  "\u0120guid": 10103,
  "\u0120mystery": 10715,
  "\u0120Else": 25974,
  "\u0120unravel": 30282,
  "\u0120wrapped": 12908,
  "\u0120Sailor": 45924,
  "\u0120monumental": 36364,
  "\u0120698": 39861,
  "uh": 7456,
  "olitics": 21704,
  "\u0120Paula": 36025,
  "\u0120Consult": 21651,
  "\u0120narc": 16946,
  "\u0120ledge": 35614,
  "\u0120aborted": 46847,
  "\u00c2\u00b0": 7200,
  "Normal": 26447,
  "Sky": 22308,
  "\u00cf\u0124": 35558,
  "icus": 24552,
  "\u0120Jacobs": 27593,
  "\u0120frameworks": 29251,
  "sie": 44524,
  "\u0120disgu": 17360,
  "Charl": 24453,
  "utils": 26791,
  "\u0120dominate": 17863,
  "\u0120granting": 21787,
  "\u0120Gorsuch": 38465,
  "000000": 10535,
  "\u0120reader": 9173,
  "aced": 2286,
  "uth": 1071,
  "\u0120+": 1343,
  "\u0120Armor": 10313,
  "\u0120bags": 11668,
  "\u0120batteries": 13591,
  "\u0120essentially": 6986,
  "\u0120ceramic": 37973,
  "\u0120extremes": 31082,
  "\u0120Columbus": 14939,
  "PLA": 45710,
  "Graphics": 18172,
  "orted": 9741,
  "\u0120Patricia": 30223,
  "\u0120Turkey": 7137,
  "\u0120barric": 31853,
  "\u0120fixed": 5969,
  "\u0120fullest": 40830,
  "\u0120recap": 26871,
  "\u0120GPUs": 32516,
  "assert": 30493,
  "\u01201960": 9507,
  "\u0120helmet": 14335,
  "hor": 17899,
  "\u0120Released": 28728,
  "\u0120propos": 4218,
  "\u0120shroud": 32296,
  "\u0120delivers": 16316,
  "\u0120constitute": 15613,
  "\u0120Action": 7561,
  "\u0120tantal": 46937,
  "Nin": 36091,
  "Safe": 31511,
  "\u0120mills": 41999,
  "icable": 18424,
  "Second": 12211,
  "\u0120Tower": 8765,
  "\u0120anonymously": 35373,
  "\u0120testers": 42891,
  "Battle": 24064,
  "iant": 3014,
  "Then": 6423,
  "\u0120ausp": 45062,
  "Current": 11297,
  "uture": 1832,
  "\u0120Ps": 33610,
  "\u0120bodily": 20734,
  "\u0120grop": 39136,
  "Bloomberg": 47696,
  "Critics": 36623,
  "pointer": 29536,
  "\u0120lookup": 35847,
  "\u0120Sergei": 34724,
  "\u0120ballet": 47735,
  "\u0120Koen": 49178,
  "\u0120mortgages": 30401,
  "\u0120nostalgia": 30889,
  "\u0120turbulent": 42291,
  "Jessica": 45572,
  "\u0120booths": 45496,
  "emy": 3065,
  "\u0120repeated": 5100,
  "\u0120vary": 7565,
  "\u0120wants": 3382,
  "alysis": 8767,
  "\u0120clan": 19065,
  "\u0120metab": 10523,
  "\u0120then": 788,
  "\u0120harrowing": 45736,
  "\u0120trusts": 31976,
  "ility": 879,
  "\u0120calf": 31134,
  "alis": 27315,
  "CLE": 29931,
  "\u0120equivalent": 7548,
  "\u0120timers": 48085,
  "\u0120Salman": 31995,
  "\u0120Stranger": 29683,
  "IVERS": 30194,
  "Snow": 28974,
  "\u0120corp": 24614,
  "\u0120discourage": 27518,
  "\u0120rental": 14447,
  "option": 18076,
  "\u0120Probably": 18578,
  "\u0120Very": 9576,
  "\u0120explos": 6054,
  "\u0120iron": 6953,
  "Down": 8048,
  "approximately": 47498,
  "Iterator": 37787,
  "\u0120permanent": 7748,
  "\u0120timet": 35732,
  "\u0120vigorously": 31609,
  "oshenko": 43934,
  "\u0120Omaha": 37053,
  "itans": 43716,
  "At": 2953,
  "\u0120slept": 21256,
  "\u0120Hebrew": 16505,
  "\u0120Zerg": 37509,
  "562": 43918,
  "\u0120clicking": 12264,
  "\u0120pinch": 25394,
  "ITH": 10554,
  "aucus": 16710,
  "\u0120Gos": 30007,
  "GD": 45113,
  "\u0120MI": 15789,
  "\u0120debacle": 40943,
  "\u01201896": 46723,
  "\u0120Motor": 12533,
  "\u0120Sor": 15423,
  "\u0120dragging": 25046,
  "\u0120outspoken": 27687,
  "\u0120Shame": 48266,
  "\u0120removed": 4615,
  "\u0120dest": 2244,
  "\u0120ultraviolet": 49961,
  "PLAY": 31519,
  "rieg": 48429,
  "\u0120habitat": 20018,
  "ueller": 16466,
  "\u0120honey": 12498,
  "ooked": 46288,
  "\u0120Altern": 13243,
  "\u0120opens": 9808,
  "BLIC": 32936,
  "\u0120MD": 10670,
  "\u0120famed": 28331,
  "\u0120Roman": 7993,
  "\u0120thats": 29294,
  "aughtered": 32734,
  "\u0120cries": 24691,
  "\u0120abuser": 46601,
  "\u0120separatists": 34214,
  "\u0120Finland": 17837,
  "ulet": 25132,
  "\u0120Rio": 15338,
  "\u0120reflections": 35066,
  "\u0120Virtue": 39662,
  "\u0120Pain": 15627,
  "\u0120betting": 22908,
  "Favorite": 49434,
  "igrant": 9893,
  "dds": 33714,
  "\u0120salts": 37056,
  "td": 8671,
  "\u0120sword": 8429,
  "\u0120Santorum": 34008,
  "\u0120Simpl": 45157,
  "eming": 46564,
  "loading": 25138,
  "\u0120Bj": 34254,
  "\u0120clenched": 47344,
  "\u0120identifies": 21079,
  "\u0120median": 14288,
  "\u0120or": 393,
  "\u0120roaming": 31665,
  "\u0120commuter": 40718,
  "Boost": 45686,
  "Exp": 16870,
  "Extreme": 36716,
  "\u0120Panama": 23519,
  "\u0120disappeared": 12120,
  "Static": 45442,
  "\u0120curiosity": 20136,
  "\u0120rank": 4279,
  "\u0120deadliest": 39268,
  "\u0120investor": 15811,
  "istar": 47229,
  "\u0120Twitter": 3009,
  "word": 4775,
  "\u0120cores": 21758,
  "\u0120Elf": 19067,
  "\u0120Harold": 23987,
  "apps": 18211,
  "marg": 30887,
  "\u0120France": 4881,
  "\u0120couldn": 3521,
  "\u0120thinks": 6834,
  "\u0120banter": 46420,
  "\u0120Purg": 49893,
  "\u0120natural": 3288,
  "shirts": 23231,
  "\u0120Compos": 29936,
  "u": 84,
  "\u0120Navigation": 42115,
  "\u0120disperse": 41273,
  "\u0120leash": 40529,
  "\u0120scheduling": 26925,
  "\u0120Psych": 7562,
  "\u0120Afghans": 48336,
  "draft": 35679,
  "URL": 21886,
  "\u0120Lockheed": 34238,
  "\u0120insulting": 27899,
  "\u0120Unlike": 12101,
  "\u0120mailed": 37789,
  "\u0120Representatives": 17132,
  "\u0120Detention": 46193,
  "\u0120Mutant": 35319,
  "\u0120blending": 34863,
  "\u0120indemn": 47846,
  "IVES": 42472,
  "\u0120pund": 24745,
  "\u0120recruit": 10960,
  "\u0120exclaim": 48775,
  "\u0120discovering": 21611,
  "Nik": 40979,
  "\u0120bombard": 35285,
  "\u0120correspondent": 21076,
  "heng": 31753,
  "rim": 3036,
  "\u0120endorse": 11438,
  "\u0120virgin": 21772,
  "\u0120planning": 5410,
  "\u0120\u00e2\u0122\u012d": 20126,
  "Untitled": 46332,
  "opausal": 47637,
  "lishing": 20020,
  "River": 42204,
  "puted": 17128,
  "\u0120Gret": 35877,
  "\u0120Kerr": 32879,
  "\u0120Look": 6803,
  "\u0120Morales": 36588,
  "lessly": 8613,
  "\u0120Nick": 8047,
  "\u0120shar": 13986,
  "FAQ": 42680,
  "uki": 11308,
  "HB": 32886,
  "loop": 26268,
  "\u0120observed": 6515,
  "\u0120govern": 1089,
  "Our": 5122,
  "\u0120Perry": 14105,
  "\u0120vessel": 8837,
  "\u0120Values": 27068,
  "\u0120ail": 31907,
  "\u0120horror": 9961,
  "\u0120Emb": 13302,
  "\u00c3\u00bcr": 25151,
  "ier": 959,
  "Lua": 36127,
  "\u0120Beth": 19223,
  "anging": 4924,
  "\u0120Dangerous": 29892,
  "\u0120Bec": 15780,
  "\u0120Mod": 3401,
  "\u0120inc": 753,
  "];": 11208,
  "abol": 28426,
  "star": 7364,
  "\u0120prominent": 9208,
  "||": 15886,
  "\u0120-------": 35656,
  "\u0120Phantom": 14407,
  "breeding": 49705,
  "\u0120elegance": 49198,
  "1968": 42246,
  "\u0120carbs": 33037,
  "Point": 12727,
  "\u0120centimeters": 48829,
  "\u0120correlate": 39684,
  "\u0120licking": 43390,
  "\u0120softer": 32359,
  "\u0120translates": 23677,
  "\u0120sporadic": 48172,
  "\u0120Say": 13816,
  "Memory": 30871,
  "\u0120preacher": 39797,
  "\u0120jihadists": 31395,
  "Up": 4933,
  "\u0120Ridge": 20614,
  "\u0120Evolution": 15815,
  "\u0120TRI": 37679,
  "\u0120dependency": 20203,
  "\u0120displayed": 9066,
  "wu": 43812,
  "Get": 3855,
  "\u0120charisma": 45581,
  "thus": 26239,
  "\u0120Desk": 39246,
  "\u0120PASS": 41752,
  "\u0120kitchen": 9592,
  "\u0120north": 5093,
  "Islamic": 26723,
  "\u0120Virgin": 5283,
  "Pie": 48223,
  "\u0120Zen": 14760,
  "\u0120scored": 7781,
  "\u0120tagging": 49620,
  "\u0120thous": 3207,
  "\u0120admins": 44563,
  "\u0120antidepressant": 41897,
  "\u0120Uh": 28574,
  "\u0120passing": 6427,
  "\u0120topping": 34366,
  "\u0120troubling": 20294,
  "\u0120validated": 31031,
  "\"\"\"": 37811,
  "\u0120molecular": 18955,
  "\u0120vap": 38187,
  "\u0120Discrimination": 49298,
  "\u0120sane": 33241,
  "\u0120e": 304,
  "\u0120without": 1231,
  "INK": 17248,
  ",''": 14004,
  "now": 2197,
  "514": 47396,
  "\u0120Local": 10714,
  "\u0120Offic": 6328,
  "\u0120caster": 31680,
  "374": 31020,
  "\u0120erg": 39035,
  "\u0120medial": 48174,
  "UD": 8322,
  "\u0120epit": 21240,
  "\u0120\u00e2\u0136\u013e\u00e2\u0136\u0122\u00e2\u0136\u0122": 35306,
  "istry": 4592,
  "USB": 27155,
  "\u0120booth": 18600,
  "\u0120palace": 20562,
  "\u0120Barber": 35338,
  "\u0120Awoken": 8755,
  "\u0120humiliated": 42659,
  "\u0120questions": 2683,
  "\u0120Dell": 23617,
  "\u0120Reeves": 41533,
  "\u0120River": 5866,
  "pri": 3448,
  "\u0120Le": 1004,
  "oshop": 25444,
  "\u0120Garland": 35466,
  "vernment": 11355,
  "opsy": 44522,
  "\u0120knights": 27536,
  "spot": 20485,
  "\u0120wielded": 42459,
  "Mur": 23830,
  "\u0120Michigan": 7055,
  "grade": 9526,
  "\u0120spilling": 45085,
  "\u0120SN": 11346,
  "\u0120NETWORK": 49791,
  "exempt": 42679,
  "\u0120unlawful": 18236,
  "ipers": 29288,
  "\u0120Browser": 34270,
  "\u0120Ha": 9398,
  "\u0120layoffs": 41965,
  "\u0120mig": 37011,
  "\u01202004": 5472,
  "Direct": 13470,
  "\u012032": 3933,
  "\u0120Blink": 41732,
  "\u0120coax": 37700,
  "88": 3459,
  "\u0120computers": 9061,
  "ichael": 40302,
  "\u0120Sims": 25343,
  "gross": 47181,
  "\u0120manually": 14500,
  "\u0120possessed": 17273,
  "\u0120rollout": 38180,
  "\u0120Suicide": 27695,
  "\u0120shortcut": 29401,
  "is": 271,
  "querque": 36119,
  "\u0120addicted": 28357,
  "\u0120brokerage": 48716,
  "isk": 1984,
  "\u0120swaps": 43997,
  "\u00d1\u0124": 20375,
  "office": 31810,
  "\u0120inspections": 30287,
  "Overall": 16350,
  "deck": 35875,
  "leen": 20042,
  "\u0120tossed": 22591,
  "daily": 29468,
  "\u0120cc": 36624,
  "\u0120exempl": 21433,
  "crow": 47114,
  "\u0120parchment": 38414,
  "\u0120diaper": 48196,
  "iates": 32820,
  "\u0120Fukushima": 34170,
  "\u0120419": 48475,
  "\u0120Defenders": 26983,
  "illian": 37896,
  "\u0120assail": 29886,
  "\u0120forgotten": 11564,
  "\u0120gardens": 25476,
  "\u0120rather": 2138,
  "\u0120caution": 13041,
  "\u0120gigg": 30442,
  "\u0120misses": 18297,
  "\u0120divers": 15070,
  "\u0120Definitive": 46634,
  "\u0120Restore": 42019,
  "adish": 48563,
  "\u0120Peach": 33230,
  "\u0120presume": 36059,
  "\u0120overd": 14904,
  "\u0120fmt": 46996,
  "\u0120dan": 46078,
  "\u0120licens": 8240,
  "\u0120Peru": 25768,
  "\u0120Britain": 5491,
  "atham": 37520,
  "\u0104": 192,
  "headed": 15353,
  "erala": 33314,
  "\u0120Nights": 27760,
  "\u0120Intern": 2445,
  "\u0120Mil": 4460,
  "igmatic": 38860,
  "inky": 29246,
  "\u0120Dog": 8532,
  "\u0120Mai": 36709,
  "\u0120bones": 11945,
  "\u0120central": 4318,
  "\u0120humorous": 36102,
  "\u0120reper": 23269,
  "\u0120spends": 16887,
  "iazep": 48826,
  "\u0120customized": 27658,
  "\u0120TVs": 31596,
  "297": 26561,
  "rology": 31142,
  "\u0120Romo": 42395,
  "\u0120extingu": 24995,
  "eller": 12368,
  "shield": 26662,
  "thought": 28895,
  "\u0120towed": 49445,
  "\u0120ways": 2842,
  "\u0120Kenneth": 23632,
  "\u00e3\u0124\u00bb": 47271,
  "\u0120Huma": 49387,
  "gaard": 36232,
  "seeking": 38515,
  "\u0120appalled": 41586,
  "\u0120harmed": 28517,
  "Handle": 37508,
  "Madison": 46845,
  "\u0120Ether": 20017,
  "\u0120LORD": 35750,
  "Using": 12814,
  "ibu": 33828,
  "\u0120thigh": 19341,
  "DL": 19260,
  "itan": 18642,
  "]:": 5974,
  "\u0120banning": 19479,
  "\u0120operated": 12228,
  "\u0120synth": 33549,
  "round": 744,
  "\u0120shouts": 34757,
  "\u0120Repe": 30558,
  "\u0120pillars": 30485,
  "\u0120Association": 5396,
  "ameda": 49637,
  "aker": 3110,
  "\u0120Rolling": 21567,
  "\u0120emerge": 14740,
  "\u0120copies": 9088,
  "eng": 1516,
  "PT": 11571,
  "\u0120engineer": 11949,
  "\u0120holiday": 9912,
  "\u0120national": 2260,
  "\u0120phot": 2825,
  "\u0120populate": 48040,
  "\u0120filthy": 35677,
  "@@@@@@@@": 37991,
  "50": 1120,
  "atari": 35554,
  "wl": 40989,
  "\u0120Portsmouth": 48823,
  "BN": 15766,
  "\u0120Real": 6416,
  "\u0120Reduced": 39963,
  "\u0120TheNitromeFan": 42090,
  "\u0120formulas": 32126,
  "\u0120Advocate": 40209,
  "hyp": 36362,
  "\u0120\u00e3\u0124\u00b5\u00e3\u0125\u00bc\u00e3\u0125\u0128\u00e3\u0124\u00a3": 45544,
  "output": 22915,
  "Vol": 16598,
  "airs": 3468,
  "\u0120Papers": 27420,
  "\u0120SSH": 33825,
  "\u0120attachments": 32161,
  "\u0120availability": 11500,
  "\u0120denounce": 38639,
  "quickShip": 39752,
  "\u0120outrage": 11616,
  "\u0120undergo": 17777,
  "Lv": 29507,
  "ighters": 6261,
  "\u0120declass": 42794,
  "avement": 44034,
  "rus": 14932,
  "\u0120Borg": 29004,
  "\u0120Sn": 5489,
  "\u0120scrib": 44661,
  "Jar": 47511,
  "\u0120396": 48758,
  "\u0120sketch": 17548,
  "\u0120Screw": 42147,
  "Penn": 39899,
  "\u00e6\u013f": 30266,
  "\u0120reinforcement": 37414,
  "PL": 6489,
  "\u0120nutrit": 44867,
  "\u0120wallet": 13008,
  "\u0120OF": 3963,
  "cend": 15695,
  "\u0120disson": 47080,
  "Fair": 30099,
  "letal": 47293,
  "ap": 499,
  "Ted": 38972,
  "\u0120puls": 22271,
  "lt": 2528,
  "\u0120scripts": 14750,
  "\u0120Moe": 46488,
  "\u0120statue": 15207,
  "orst": 29422,
  "\u0120Belgian": 21402,
  "edd": 6048,
  "\u0120Appropri": 29857,
  "\u0120Dwell": 42979,
  "\u0120Whit": 13183,
  "\u0120genocide": 20744,
  "\u0120feud": 21419,
  "maker": 10297,
  "ratulations": 30167,
  "Water": 19184,
  "\u0120Custom": 8562,
  "\u0120NPCs": 28167,
  "\u0120darkness": 11854,
  "\u0120Nolan": 27788,
  "\u0120filename": 29472,
  "\u0120des": 748,
  "imp": 11011,
  "013": 30273,
  "mu": 30300,
  "\u0120Honey": 21788,
  "\u0120imper": 11071,
  "\u0120EE": 27254,
  "\u0120\\(\\": 40719,
  "\u0120justifies": 45628,
  "\u0120Eleanor": 45566,
  "\u0120borderline": 38422,
  "\u0120poke": 22620,
  "LIB": 40347,
  "\u0120minor": 4159,
  "\u0120resemble": 22464,
  "\u0120stale": 39985,
  "\u0120lasts": 20374,
  "\u0120tasks": 8861,
  "\u0120eternal": 15851,
  "\u0120\u00e2\u012b": 15139,
  "\u00e5\u013d": 32368,
  "\u0120tactics": 10815,
  "\u0120HuffPost": 35130,
  "flu": 35522,
  "\u0120admin": 13169,
  "\u0120airstrike": 46504,
  "\u0120Explicit": 11884,
  "03": 3070,
  "\u0120storytelling": 23689,
  "\u0120trivia": 44782,
  "Chance": 43606,
  "Major": 24206,
  "greg": 9903,
  "\u0120PK": 29673,
  "\u0120bab": 9289,
  "\u0120outreach": 23424,
  "ERO": 34812,
  "\u0120partying": 49901,
  "hum": 17047,
  "inite": 9504,
  "?????-?????-": 31666,
  "\u0120unnecess": 11689,
  "isky": 34041,
  "\u0120Legends": 14270,
  "\u01209000": 50138,
  "\u0120bystanders": 46652,
  "\u0120Bac": 35583,
  "lag": 30909,
  "\u0120cohesion": 44182,
  "uckle": 29687,
  "\u0120Death": 5830,
  "\u0120approx": 5561,
  "\u0120downstairs": 34624,
  "\u0120Hell": 5783,
  "\u0120chances": 8395,
  "\u0120suspended": 9951,
  "\u0120MAP": 34645,
  "\u0120attributes": 12608,
  "\u0120chromosome": 34348,
  "ften": 14785,
  "\u0120statist": 10118,
  "rab": 25619,
  "\u0120Cruz": 8742,
  "\u0120Huh": 45412,
  "\u0120Lyon": 35193,
  "\u00c3\u0143s": 41200,
  "\u0120times": 1661,
  "\u0120Kak": 31250,
  "\u0120gratification": 47459,
  "\u0120Makoto": 40627,
  "\u0120register": 7881,
  "\u0120planted": 18969,
  "uve": 45177,
  "\u0120showcases": 45064,
  "\u0120MM": 20806,
  "\u0120214": 28277,
  "\u0120ranking": 12759,
  "ISION": 42446,
  "\u01202025": 32190,
  "\u0120coughing": 48308,
  "\u0120fertilizer": 37113,
  "\u0120Tradable": 11974,
  "icion": 47430,
  "en": 268,
  "stra": 12044,
  "\u0120She": 1375,
  "\u0120overrun": 33713,
  "\u0120Train": 16835,
  "\u0120turtles": 36288,
  "\u0120ISP": 33086,
  "LEASE": 22781,
  "\u0120ven": 8710,
  "))": 4008,
  "ress": 601,
  "\u0120Rich": 3998,
  "\u0120Vu": 35816,
  "\u0120malfunction": 35654,
  "\u0120Floor": 22343,
  "\u0120pension": 13553,
  "\u0120policies": 4788,
  "\u0120proposing": 24634,
  "\u0120imperative": 23602,
  "iliary": 28129,
  "\u0120scientifically": 32627,
  "\u0120depict": 19583,
  "\u0120thief": 25906,
  "\u0120110": 9796,
  "\u0120incest": 35961,
  "Arizona": 40732,
  "Anthony": 32697,
  "python": 29412,
  "\u0120Minister": 4139,
  "559": 38605,
  "\u0120SERVICES": 49254,
  "\u0120enrollment": 20753,
  "\u0120Gems": 30196,
  "\u0120jo": 2525,
  "\u0120Claude": 40559,
  "\u0120FORM": 49144,
  "------------": 10541,
  "]}": 48999,
  "\u0120Blackwell": 40622,
  "\u0120matters": 6067,
  "abe": 11231,
  "\u0120ratification": 48815,
  "\u0120num": 997,
  "440": 25644,
  "appropriately": 45175,
  "\u0120Div": 4777,
  "blank": 27190,
  "\u0120Johnston": 28972,
  "\u0120jealous": 19354,
  "\u0120literal": 18875,
  "\u0120flowing": 17609,
  "\u0120Pixie": 46687,
  "\u0120roses": 42152,
  "\u0120dismant": 27038,
  "Arm": 26560,
  "\u0120flushed": 44869,
  "\u0120culmination": 41089,
  "Earn": 49725,
  "\u0120portal": 17898,
  "ouring": 21823,
  "\u0120Vault": 23450,
  "aji": 26436,
  "iscover": 29392,
  "\u0120gui": 11774,
  "\u0120mortal": 22122,
  "ois": 10924,
  "iders": 4157,
  "\u0120Jub": 38075,
  "\u0120Oblivion": 34181,
  "\u0120Starter": 37460,
  "\u0120hawk": 48710,
  "roll": 2487,
  "\u0120Treasurer": 45399,
  "\u0120near": 1474,
  "\u0120reformed": 42878,
  "\u0120Scourge": 43238,
  "NV": 27159,
  "Upload": 41592,
  "appro": 21064,
  "=-=-=-=-": 27584,
  "boa": 48614,
  "Phys": 43215,
  "adjust": 23032,
  "pause": 32125,
  "ursed": 17539,
  "\u0120Heroes": 9896,
  "\u0120Ts": 13146,
  "redo": 48454,
  "\u0120citizen": 9511,
  "\u0120flaw": 11804,
  "\u0120modelling": 38591,
  "$": 3,
  "Everyone": 16190,
  "\u0120apologies": 32920,
  "\u0120loses": 14754,
  "\u0120regex": 40364,
  "While": 3633,
  "\u0120Oops": 48002,
  "\u0120From": 3574,
  "\u0120Spotlight": 49014,
  "\u0120siph": 44105,
  "\u0120taxp": 9065,
  "\u0120trips": 13229,
  "\u0120REC": 19644,
  "Weight": 25844,
  "\u0120establishment": 9323,
  "\u0120Aqua": 24838,
  "\u0120Engine": 7117,
  "wal": 16783,
  "\u0120climbed": 19952,
  "\u0120WTO": 47074,
  "\u0120chests": 34572,
  "\u0120Preservation": 47805,
  "\u0120coerced": 48474,
  "\u0120wiki": 22719,
  "\u0120NEWS": 28840,
  "\u0120Electoral": 27557,
  "\u0120abducted": 34682,
  "\u0120contraction": 36246,
  "\u0120sense": 2565,
  "\u0120incarcerated": 33946,
  "ABC": 24694,
  "\u0120scient": 3062,
  "866": 42240,
  "\u0120Bond": 12812,
  "Thompson": 48942,
  "\u0120Tou": 23359,
  "\u0120cyl": 17327,
  "\u0120wrath": 26485,
  "\u0120Fulton": 44373,
  "\u0120Latino": 20496,
  "\u0120outs": 12198,
  "aru": 11493,
  "\u0120236": 34044,
  "anty": 46098,
  "\u0120Element": 11703,
  "ravel": 25843,
  "\u0120Emerson": 41886,
  "ettle": 23570,
  "\u0120Program": 6118,
  "\u0120Tasmania": 46896,
  "\u0120WS": 25290,
  "sorry": 41599,
  "\u0120comedians": 43520,
  "inton": 2371,
  "holder": 13829,
  "ulates": 15968,
  "unciation": 24978,
  "\u0120swallowing": 45590,
  "\u013d": 249,
  "\u0120Er": 5256,
  "derived": 34631,
  "ractical": 36112,
  "usion": 4241,
  "\u0120Ascend": 45387,
  "\u0120Crowd": 29452,
  "\u0120discriminating": 48212,
  "heartedly": 44407,
  "\u0120Irving": 26101,
  "\u0120Stand": 5751,
  "\u0120coales": 46064,
  "\u0120intoler": 20619,
  "\u0120lucrative": 22958,
  "\u0120mankind": 18019,
  "\u0120phenomenon": 10733,
  "\u0120polar": 13559,
  "\u0120premiums": 21884,
  "\u0120seven": 3598,
  "\u0120condolences": 38671,
  "\u0120Kimber": 36015,
  "\u0120rules": 3173,
  "Ad": 2782,
  "\u0120val": 1188,
  "\u0120Lance": 18990,
  "ieth": 19235,
  "\u0120Keystone": 29055,
  "CLOSE": 32737,
  "\u0120Michaels": 44768,
  "\u0120Sounds": 27107,
  "\u012086": 9849,
  "screen": 9612,
  "\u0120care": 1337,
  "\u0120Motorola": 31351,
  "\u0120ray": 26842,
  "\u0120semin": 36870,
  "\u0120certainty": 18979,
  "ORN": 30649,
  "\u0120Controlled": 43253,
  "\u0120introduces": 20718,
  "\u0120424": 48252,
  "Rank": 27520,
  "\u0120Lon": 39295,
  "ingly": 4420,
  "\u0120Ding": 46980,
  "\u0120Management": 8549,
  "\u0120Aad": 38746,
  "\u0120Stop": 13707,
  "\u0120TMZ": 46800,
  "\u0120Trevor": 25389,
  "\u0120anterior": 32700,
  "\u0120benz": 39601,
  "\u0120mono": 33361,
  "\u0120sexes": 32487,
  "\u0120hemor": 42000,
  "\u0120DW": 29652,
  "\u0120Unable": 27319,
  "\u0120formed": 7042,
  "\u0120nonsense": 18149,
  "\u0120vitality": 41687,
  "\u0120Nay": 38808,
  "\u0120hubs": 38459,
  "\u0120cro": 6763,
  "\u0120Nuclear": 19229,
  "\u0120restrictions": 8733,
  "\u0120comedic": 42047,
  "\u0120homosexuality": 19822,
  "\u0120playback": 16388,
  "\u0120digital": 4875,
  "\u0120storms": 20228,
  "\u00cf\u0122": 46582,
  "\u0120Operation": 14680,
  "\u0120Records": 13407,
  "\u0120depicting": 27561,
  "\u0120Montgomery": 21532,
  "\u0120MTV": 31214,
  "\u0120effortlessly": 42241,
  "Module": 26796,
  "wr": 18351,
  "\u01201980": 7169,
  "\u0120giveaway": 39015,
  "\u00d1": 141,
  "415": 35038,
  "ducers": 41213,
  "\u0120Kraft": 41828,
  "acion": 49443,
  "itude": 3984,
  "Control": 15988,
  "pez": 46057,
  "\u0120Walk": 6857,
  "\u0120applicable": 9723,
  "\u0120citation": 27860,
  "\u0120genuinely": 17170,
  "Deploy": 49322,
  "To": 2514,
  "\u0120Gru": 25665,
  "\u0120chap": 28022,
  "\u0120conditioning": 21143,
  "\u0120inmates": 16831,
  "\u0120procedure": 8771,
  "\u0120shards": 39991,
  "\u0120texting": 36634,
  "\u0120twisted": 19074,
  "\u0120\u00e2\u0138\u0142": 34252,
  "\u0120420": 28262,
  "\u0120shampoo": 47259,
  "Manchester": 40744,
  "\u0120freak": 22601,
  "\u0120UCS": 49553,
  "\u0120drunk": 10785,
  "\u0120UW": 33436,
  "\u0120physic": 22270,
  "group": 8094,
  "\u0120prime": 6994,
  "\u0120Gree": 5251,
  "\u0120double": 4274,
  "\u0120amino": 23206,
  "\u0120pan": 3425,
  "BO": 8202,
  "\u0120communicated": 28412,
  "ggy": 19970,
  "\u0120defeat": 7433,
  "\u0120polarization": 42704,
  "\u0120tilt": 26500,
  "VR": 13024,
  "\u0120Omega": 19839,
  "\u0120820": 48964,
  "\u0120Ragnar": 32797,
  "\u0120potions": 28074,
  "ush": 1530,
  "\u0120rewrite": 28183,
  "PE": 11401,
  "\u0120raid": 9513,
  "\u0120utilitarian": 48239,
  "\u0120Watch": 6305,
  "\u0120Dove": 48595,
  "\u0120solic": 25806,
  "inally": 3289,
  "\u0120Blasio": 36200,
  "\u0120Canary": 50206,
  "\u0120cout": 42304,
  "nect": 1606,
  "\u0120Years": 13212,
  "\u0120conduit": 44457,
  "\u0120talent": 7401,
  "\u0120bol": 11572,
  "\u0120Xeon": 45266,
  "\u0120attribute": 11688,
  "umbo": 29309,
  "\u00e2\u013a\u0128": 35283,
  "\u0120hypocr": 25258,
  "inburgh": 22222,
  "\u0120secrets": 13141,
  "\u0120vol": 2322,
  "455": 30505,
  "\u0120role": 2597,
  "clerosis": 31399,
  "\u0120Half": 13139,
  "\u0120sells": 16015,
  "\u0120Bride": 29840,
  "\u0120demonstrate": 10176,
  "\u0120parody": 29695,
  "\u0120OU": 47070,
  "\u0120program": 1430,
  "\u012096": 9907,
  "\u0120Yose": 38095,
  "USE": 19108,
  "\u0120saliva": 40333,
  "\u0120familial": 48376,
  "\u0120likeness": 35674,
  "\u0120Bite": 44540,
  "\u0120Delhi": 12517,
  "\u0120Smith": 4176,
  "\u0120opaque": 32191,
  "\u00e9\u0125": 32849,
  "Rush": 49942,
  "\u0120retain": 12377,
  "stri": 33565,
  "\u0120Chevrolet": 35398,
  "\u0120sty": 8944,
  "ksh": 50133,
  "\u00d7\u0132": 42973,
  "\u0120317": 37563,
  "Must": 34320,
  "\u0120strengths": 18929,
  "href": 33257,
  "\u0120Reached": 13618,
  "\u0120Arpaio": 46861,
  "\u0120assists": 13648,
  "izens": 44908,
  "\u0120bondage": 43473,
  "\u0120Horses": 49122,
  "\u0120hereafter": 49912,
  "\u0120impede": 43195,
  "ranged": 34457,
  "\u0120interpol": 39555,
  "\u0120labels": 14722,
  "\u0120392": 48207,
  "\u0120credible": 18409,
  "\u0120fluid": 11711,
  "\u0120Patreon": 29859,
  "\u0120hood": 14263,
  "icient": 11373,
  "blade": 22500,
  "475": 32576,
  "\u0120Deus": 37365,
  "\u0120annoyed": 25602,
  "\u0120Inventory": 35772,
  "\u0120illicit": 24271,
  "\u0120plunged": 31460,
  "ogo": 24076,
  "RF": 32754,
  "tab": 8658,
  "upt": 37623,
  "________________________________________________________________": 27193,
  "\u0120Chevron": 50083,
  "\u0120he": 339,
  "\u0120perilous": 48325,
  "\u0120Monk": 28854,
  "Phoenix": 36422,
  "\u0120informal": 22176,
  "racuse": 28268,
  "\u0120pane": 37218,
  "\u0120switched": 15293,
  "\u0120reductions": 20691,
  "herty": 29029,
  "\u0120Les": 11732,
  "FactoryReloaded": 37631,
  "\u0120Ratings": 36826,
  "\u0120cowardly": 47687,
  "Ts": 33758,
  "esty": 9673,
  "\u0120sy": 827,
  "\u0120touched": 12615,
  "\u00c3\u0125\u00c3\u0124\u00c3\u0125\u00c3\u0124\u00c3\u0125\u00c3\u0124\u00c3\u0125\u00c3\u0124": 9364,
  "intelligence": 32683,
  "\u0120depicted": 18904,
  "amed": 2434,
  "\u0120produce": 4439,
  "urrency": 13382,
  "\u0120sell": 3677,
  "\u0120throughout": 3690,
  "\u0120Abbott": 16988,
  "levision": 5024,
  "seven": 26548,
  "\u0120Notwithstanding": 43970,
  "\u0120locom": 33334,
  "\u0120Krist": 14912,
  "\u0120Marks": 27366,
  "\u0120Transactions": 46192,
  "sided": 22339,
  "\u0120burn": 4245,
  "\u0120retaining": 26645,
  "ums": 5700,
[...]
